{"<|endoftext|>":0,"!":1,"\"":2,"#":3,"$":4,"%":5,"&":6,"'":7,"(":8,")":9,"*":10,"+":11,",":12,"-":13,".":14,"/":15,"0":16,"1":17,"2":18,"3":19,"4":20,"5":21,"6":22,"7":23,"8":24,"9":25,":":26,";":27,"<":28,"=":29,">":30,"?":31,"@":32,"A":33,"B":34,"C":35,"D":36,"E":37,"F":38,"G":39,"H":40,"I":41,"J":42,"K":43,"L":44,"M":45,"N":46,"O":47,"P":48,"Q":49,"R":50,"S":51,"T":52,"U":53,"V":54,"W":55,"X":56,"Y":57,"Z":58,"[":59,"\\":60,"]":61,"^":62,"_":63,"`":64,"a":65,"b":66,"c":67,"d":68,"e":69,"f":70,"g":71,"h":72,"i":73,"j":74,"k":75,"l":76,"m":77,"n":78,"o":79,"p":80,"q":81,"r":82,"s":83,"t":84,"u":85,"v":86,"w":87,"x":88,"y":89,"z":90,"{":91,"|":92,"}":93,"~":94,"¡":95,"¢":96,"£":97,"¤":98,"¥":99,"¦":100,"§":101,"¨":102,"©":103,"ª":104,"«":105,"¬":106,"®":107,"¯":108,"°":109,"±":110,"²":111,"³":112,"´":113,"µ":114,"¶":115,"·":116,"¸":117,"¹":118,"º":119,"»":120,"¼":121,"½":122,"¾":123,"¿":124,"À":125,"Á":126,"Â":127,"Ã":128,"Ä":129,"Å":130,"Æ":131,"Ç":132,"È":133,"É":134,"Ê":135,"Ë":136,"Ì":137,"Í":138,"Î":139,"Ï":140,"Ð":141,"Ñ":142,"Ò":143,"Ó":144,"Ô":145,"Õ":146,"Ö":147,"×":148,"Ø":149,"Ù":150,"Ú":151,"Û":152,"Ü":153,"Ý":154,"Þ":155,"ß":156,"à":157,"á":158,"â":159,"ã":160,"ä":161,"å":162,"æ":163,"ç":164,"è":165,"é":166,"ê":167,"ë":168,"ì":169,"í":170,"î":171,"ï":172,"ð":173,"ñ":174,"ò":175,"ó":176,"ô":177,"õ":178,"ö":179,"÷":180,"ø":181,"ù":182,"ú":183,"û":184,"ü":185,"ý":186,"þ":187,"ÿ":188,"Ā":189,"ā":190,"Ă":191,"ă":192,"Ą":193,"ą":194,"Ć":195,"ć":196,"Ĉ":197,"ĉ":198,"Ċ":199,"ċ":200,"Č":201,"č":202,"Ď":203,"ď":204,"Đ":205,"đ":206,"Ē":207,"ē":208,"Ĕ":209,"ĕ":210,"Ė":211,"ė":212,"Ę":213,"ę":214,"Ě":215,"ě":216,"Ĝ":217,"ĝ":218,"Ğ":219,"ğ":220,"Ġ":221,"ġ":222,"Ģ":223,"ģ":224,"Ĥ":225,"ĥ":226,"Ħ":227,"ħ":228,"Ĩ":229,"ĩ":230,"Ī":231,"ī":232,"Ĭ":233,"ĭ":234,"Į":235,"į":236,"İ":237,"ı":238,"Ĳ":239,"ĳ":240,"Ĵ":241,"ĵ":242,"Ķ":243,"ķ":244,"ĸ":245,"Ĺ":246,"ĺ":247,"Ļ":248,"ļ":249,"Ľ":250,"ľ":251,"Ŀ":252,"ŀ":253,"Ł":254,"ł":255,"Ń":256,"ĠĠ":257,"ĠĠĠĠ":258,"ĠĠĠ":259,"ĠĠĠĠĠĠĠĠ":260,"ĠĠĠĠĠĠĠ":261,"in":262,"se":263,"re":264,"ĊĠĠĠĠĠĠĠ":265,"on":266,"ĊĠĠĠĠĠĠĠĠ":267,"at":268,"Ġt":269,"er":270,"or":271,"st":272,"en":273,"Ġa":274,"ĊĠĠĠ":275,"Ġ=":276,"Ġi":277,"de":278,"he":279,"ar":280,"al":281,"le":282,"me":283,"ĊĠĠĠĠĠĠĠĠĠĠĠ":284,"Ġf":285,"Ġc":286,"\"\"":287,"ion":288,"Ġre":289,"lf":290,"self":291,"Ġp":292,"ur":293,"it":294,"Ġn":295,"Ġin":296,"an":297,"ct":298,"Ġthe":299,"ce":300,"Ġo":301,"Ġs":302,"ro":303,"ge":304,"Ġe":305,"ame":306,"Ġif":307,"ut":308,"ing":309,"lo":310,"ue":311,"Ġ'":312,"Ġd":313,"Ġb":314,"Ġself":315,"ent":316,"):":317,"pe":318,"--":319,"ĊĠĠĠĠĠĠĠĠĠĠĠĠĠĠĠĠ":320,"urn":321,"li":322,"\"\"\"":323,"turn":324,"ate":325,"Ġw":326,"ĊĠĠĠĠĠĠĠĠĠĠĠĠĠĠĠ":327,"fi":328,"ot":329,"ss":330,"Ġm":331,"un":332,"Ġ\"\"\"":333,"ra":334,"Ġto":335,"id":336,"Ġ#":337,"def":338,"Ġfor":339,"co":340,"ĊĊĠĠĠĠĠĠĠ":341,"mp":342,"Ġis":343,"ed":344,"Ġreturn":345,"ad":346,"one":347,"ul":348,"la":349,"val":350,"Ġ(":351,"Ġan":352,"Ġ:":353,"Ġof":354,"ĊĊĠĠĠ":355,"pt":356,"ata":357,"ch":358,"Ġst":359,"ri":360,"ype":361,"ke":362,"is":363,"um":364,"get":365,"()":366,"name":367,"None":368,"il":369,"ter":370,"es":371,"ĠT":372,"ck":373,"am":374,"di":375,"Ġ\"":376,"ex":377,"ation":378,"el":379,"._":380,"ol":381,"Ġnot":382,"',":383,"up":384,"Ġse":385,"par":386,"th":387,"ma":388,"gs":389,"ver":390,"ath":391,"value":392,"Ġand":393,"Ġcon":394,"as":395,"))":396,"ult":397,"Ġth":398,"ction":399,"['":400,"']":401,"('":402,"ode":403,"Ġex":404,"con":405,"----":406,"ve":407,"Ġl":408,"Ġh":409,"ror":410,"key":411,"type":412,"ĊĠĠĠĠĠĠĠĠĠĠĠĠĠĠĠĠĠĠĠ":413,"Ġbe":414,"ble":415,"ĊĠĠĠĠĠĠĠĠĠĠĠĠĠĠĠĠĠĠĠĠĠĠĠĠ":416,"end":417,"list":418,"ser":419,"ĠNone":420,"ta":421,"Ġfi":422,"Ġg":423,"orm":424,"Ġ+":425,"ime":426,"int":427,"Ġor":428,"ect":429,"pp":430,"Ġu":431,"ith":432,"Ġco":433,"bj":434,"':":435,"ĠA":436,"param":437,"od":438,"Ġ1":439,"')":440,"sp":441,"ig":442,"ption":443,"ext":444,"and":445,"to":446,"Ġ[":447,"Re":448,"iz":449,"ment":450,"Ġ*":451,"Ġ_":452,"ĠI":453,"qu":454,"Ġde":455,"ort":456,"Ġlo":457,"Ġ-":458,"set":459,"te":460,"age":461,"path":462,"Ġ{":463,"Ġel":464,"Ġdi":465,"``":466,"form":467,"Ġelse":468,"args":469,"str":470,"vi":471,"Ġstr":472,"rom":473,"file":474,"Ġr":475,"Ġdata":476,"Ġme":477,"ly":478,"po":479,"ise":480,"ĠS":481,"(\"":482,"ance":483,"data":484,"Ġas":485,"Ġ0":486,"et":487,"nt":488,"Ġ%":489,"ĠC":490,"Ġvalue":491,"rue":492,"rror":493,"Ġ==":494,"put":495,"Error":496,"ĠĠĠĠĠ":497,"Ġname":498,"res":499,"Ġpro":500,"Ġpar":501,"ry":502,"ine":503,"Ġwith":504,"ord":505,"able":506,"Ġar":507,"que":508,"ub":509,"Ġal":510,"ase":511,"cal":512,"ĠF":513,"Ġra":514,"ite":515,"ĠP":516,"Ġres":517,"ist":518,"ew":519,"per":520,"stance":521,"che":522,"Ġfile":523,"bject":524,"ci":525,"us":526,"Ġma":527,"\",":528,"Ġv":529,"alse":530,"out":531,"ize":532,">>":533,"),":534,"ow":535,"fig":536,"ack":537,"Ġlist":538,"fo":539,"Ġfrom":540,"red":541,"pro":542,"att":543,"ers":544,"app":545,"mple":546,"ĠĠĠĠĠĠĠĠĠĠĠĠĠĠĠĠ":547,"art":548,"ault":549,"ĠThe":550,"kw":551,"Ġdef":552,"Ġraise":553,"eld":554,"our":555,"time":556,"format":557,"ĠRe":558,"ms":559,"Ġon":560,"quest":561,"..":562,"ure":563,"Ġkey":564,"Ġy":565,"ĠD":566,"ht":567,"ĠE":568,"date":569,"kwargs":570,"\")":571,"dex":572,"ran":573,"ĊĠĠĠĠĠĠĠĠĠĠĠĠĠĠĠĠĠĠĠĠĠĠĠ":574,"ic":575,"lass":576,"rent":577,"])":578,"all":579,"Ġch":580,"sion":581,"ff":582,"ray":583,"sh":584,"Ġthat":585,"00":586,"Ġwh":587,"ource":588,"ind":589,"],":590,"Ġx":591,"Ġget":592,"unt":593,"Ġthis":594,"code":595,"Ġlen":596,"Ġ2":597,"Ġout":598,"sed":599,"text":600,"ĊĠĠĠĠĠ":601,"Ġlog":602,"und":603,"ill":604,"Ġset":605,"len":606,"mm":607,"iv":608,"add":609,"='":610,"cess":611,"atch":612,"ĠN":613,"pre":614,"Ġ`":615,"url":616,"ust":617,"error":618,"append":619,"Ġit":620,"Ġpo":621,"ity":622,"Ġpa":623,"Ġ``":624,"cept":625,"ameter":626,"thod":627,"Ġby":628,"Ġsh":629,"im":630,"odel":631,"''":632,"ctor":633,"pa":634,"ger":635,"reate":636,"col":637,"dd":638,"jo":639,"py":640,"ile":641,"ug":642,"ition":643,"oc":644,"Ġare":645,"ip":646,"Ġresult":647,"Ġen":648,"low":649,"mo":650,"ĊĊĠĠĠĠĠĠĠĠĠĠĠ":651,"cl":652,"ange":653,"turns":654,"__":655,"lif":656,"ive":657,"sc":658,"ument":659,"ber":660,"pi":661,"bo":662,"ary":663,"unction":664,"ces":665,"ĠTrue":666,"Ġobject":667,").":668,"Ġtime":669,"ĠM":670,"read":671,"instance":672,"Ġtype":673,"ute":674,"spon":675,"Ġhe":676,"==":677,"Ġnp":678,"roup":679,"Ġcol":680,"Ġro":681,"Ġelif":682,"der":683,"ĠV":684,"ample":685,"Ġnew":686,"ssage":687,"dict":688,"Ġtry":689,"ĠIf":690,"ph":691,"Ġwe":692,"Ġla":693,"ule":694,"--------":695,"om":696,"rint":697,"Ġ**":698,"Ġpre":699,"Ċĉ":700,"rib":701,"Ġ<":702,"valid":703,"Ġpath":704,"ded":705,"Ġexcept":706,"Ġwill":707,"op":708,"info":709,"ign":710,"log":711,"ssion":712,"peci":713,"Ġstring":714,"port":715,"Ġnum":716,"Ġun":717,"ĊĠ":718,"version":719,"Ġ{}":720,"True":721,"dir":722,"vent":723,"Ġall":724,"ork":725,"ĠR":726,"ator":727,"ari":728,"ĠL":729,"Ġ)":730,"Ġ>>":731,"\":":732,"ĠO":733,"attr":734,"class":735,"ĠFalse":736,"sponse":737,"Ġ'''":738,"bel":739,"##":740,"Ġint":741,"ĠĠĠĠĠĠ":742,"tain":743,"ca":744,"ery":745,"ĠU":746,"ĠG":747,"Ġ>>>":748,"ave":749,"ild":750,"size":751,"Ġcont":752,"fa":753,"ception":754,"config":755,"Ġdefault":756,"ore":757,"ys":758,"update":759,"fe":760,"[\"":761,"mb":762,"ps":763,"'.":764,"False":765,"load":766,"lock":767,"ated":768,"cation":769,"lement":770,"min":771,"ape":772,"Ġrequest":773,"ken":774,"ts":775,"In":776,"ĠReturns":777,"Ġisinstance":778,"ameters":779,"pla":780,"Ġk":781,"ren":782,"alue":783,"mage":784,"vice":785,"ns":786,"gument":787,"loat":788,"ne":789,"Ġoption":790,"os":791,":`":792,"string":793,"Ġ>":794,"urrent":795,"Ġfunction":796,"son":797,"ĠW":798,"Ġos":799,"Ġmethod":800,"Ġid":801,"ost":802,"line":803,"lit":804,"heck":805,"ĊĠĠĠĠĠĠĠĠĠĠĠĠĠĠĠĠĠĠĠĠĠĠĠĠĠĠĠĠĠĠĠĠ":806,"Ġdo":807,"ial":808,"rans":809,"index":810,"ener":811,"query":812,"Ġhas":813,"Ġadd":814,"Ġbo":815,"Ġuser":816,"čĊĠĠĠĠĠĠĠ":817,"Ġspeci":818,"start":819,"join":820,"\"]":821,"Ġj":822,"return":823,"Ġprint":824,"arget":825,"array":826,"ies":827,"ĠB":828,"mmand":829,"Ġ[]":830,"Ġret":831,"uld":832,"ste":833,"ĠTh":834,"tra":835,"Ġ+=":836,"():":837,"rite":838,"Ġcan":839,"count":840,"ER":841,"back":842,"ther":843,"ok":844,"Ġfil":845,"mat":846,"if":847,"Ġdict":848,"lient":849,"Ġconfig":850,"uth":851,"ĊĠĠĠĠĠĠĠĠĠĠĠĠĠĠĠĠĠĠĠĠĠĠĠĠĠĠĠĠĠĠĠĠĠĠĠĠĠĠĠĠ":852,"num":853,"Ġuse":854,"ag":855,"Ġline":856,".__":857,"Ġat":858,"atus":859,"ir":860,"iven":861,"Ġoutput":862,"Ġsub":863,"Ġle":864,"yn":865,"Ġ/":866,"Ġcomp":867,"word":868,"Ġnode":869,"ard":870,"ifi":871,"mport":872,"node":873,"ant":874,"unc":875,"Ġte":876,"ight":877,"ress":878,"ON":879,"ask":880,"base":881,"ty":882,"gth":883,"ĠThis":884,"lin":885,"Ġ\\":886,"ll":887,"Con":888,"Ġne":889,"odule":890,"].":891,"ould":892,"Ġfield":893,"ĠEx":894,"max":895,"nd":896,"not":897,"fix":898,"Ġvalues":899,"**":900,"Ġ..":901,"qui":902,"ates":903,"=\"":904,"mpl":905,"ĊĠĠĠĠĠĠĠĠĠĠĠĠĠĠĠĠĠĠĠĠĠĠĠĠĠĠĠ":906,"ab":907,"ĠH":908,"mit":909,"own":910,"Ġgiven":911,"Ġ3":912,"Ġapp":913,"ec":914,"bug":915,"ĠValue":916,"Ġerror":917,"user":918,"by":919,"ting":920,"\".":921,"rame":922,"ĊĠĠĠĠĠĠĠĠĠ":923,".\"\"\"":924,"cord":925,"ader":926,"Ġno":927,"lot":928,"obj":929,"ml":930,"Ġstart":931,"ich":932,"da":933,"Ġresponse":934,"field":935,"Ġite":936,"ump":937,"ree":938,"Ġcall":939,"gra":940,"lic":941,"IN":942,"point":943,"Ġmax":944,"group":945,"pos":946,"vel":947,"Ġ!":948,"arch":949,"work":950,"ac":951,"scri":952,"wa":953,"ĠValueError":954,"uple":955,"Ġ|":956,"Ġso":957,"Ġli":958,"ude":959,"Ġspecifi":960,"ach":961,"ning":962,"Ġ!=":963,"Ġargs":964,"Ġkwargs":965,"map":966,"split":967,"rst":968,"AT":969,"ls":970,"ĠIn":971,"([":972,"ang":973,"act":974,"Ġac":975,"attrib":976,"ence":977,"Ġinput":978,"Ġnumber":979,"Ġmodel":980,"Ġcontain":981,"vert":982,"ariable":983,"tt":984,"Ġinstance":985,"md":986,"sub":987,"St":988,"result":989,"Ġwhich":990,"default":991,"cur":992,"uct":993,"Ġcheck":994,"Ġmessage":995,"Ġz":996,"Ex":997,"we":998,"Ġindex":999,"sert":1000,"Ġused":1001,"ory":1002,"Ġarray":1003,"model":1004,"ST":1005,"{}":1006,"Ġser":1007,"params":1008,"Ġcurrent":1009,"ull":1010,"comp":1011,"Ġcreate":1012,"ound":1013,"values":1014,"ations":1015,"from":1016,"Ġend":1017,"'s":1018,"RE":1019,"state":1020,"Ġimport":1021,"ep":1022,"ses":1023,"Ġone":1024,"Ġparam":1025,"ĠAr":1026,"request":1027,"ron":1028,"ils":1029,"tern":1030,"iter":1031,"Ġpass":1032,"bu":1033,"tri":1034,"Ċĉĉ":1035,"option":1036,"nel":1037,"spa":1038,"debug":1039,"Ġfa":1040,"its":1041,"place":1042,"for":1043,"ds":1044,"())":1045,"Ġax":1046,"Ġrange":1047,"Ġfloat":1048,"sing":1049,"move":1050,"Ġ}":1051,"Ġ--------":1052,"cs":1053,"ding":1054,"cont":1055,"ĠPar":1056,"ctory":1057,"label":1058,"ject":1059,"ket":1060,"[:":1061,"Ġper":1062,"pect":1063,"row":1064,"Ġbase":1065,"object":1066,"Ġmust":1067,"write":1068,"com":1069,"ax":1070,"shape":1071,"Ġonly":1072,"pen":1073,"ual":1074,"'):":1075,"with":1076,"ou":1077,"Ġdire":1078,"====":1079,"Ġshould":1080,"Ġca":1081,"Ġcal":1082,"ature":1083,"Ġargument":1084,"items":1085,"Ġurl":1086,"umn":1087,"sent":1088,"Ġcode":1089,"Ġsu":1090,"Ġent":1091,"bs":1092,"Ġversion":1093,"inter":1094,"Ġrun":1095,"og":1096,"Ġhave":1097,"ef":1098,"Ġdis":1099,"01":1100,"Ġbu":1101,"'t":1102,"Ġreg":1103,"alt":1104,"led":1105,"ak":1106,"Ġtext":1107,"ension":1108,"ream":1109,"ical":1110,"ote":1111,"json":1112,"Ġvalid":1113,"run":1114,"Type":1115,"reg":1116,"Ġmin":1117,"np":1118,"nection":1119,"keys":1120,"Ġinter":1121,"Ġstate":1122,"space":1123,"Ġquery":1124,"tes":1125,"Ġevent":1126,"Ġexist":1127,"inal":1128,"Ġeach":1129,"Ġsup":1130,"####":1131,"gn":1132,"'],":1133,"Ġitem":1134,"df":1135,"action":1136,"adata":1137,"Ġread":1138,"call":1139,"Ġrow":1140,"Ġany":1141,"lat":1142,"Ġtarget":1143,"lay":1144,"arg":1145,"Ġlogger":1146,"Ġmat":1147,"Ġmatch":1148,"mplate":1149,"feren":1150,"Ġpy":1151,"][":1152,"Ke":1153,"Ġ@":1154,"ref":1155,"ield":1156,"Ġsource":1157,"Ġformat":1158,"thon":1159,"func":1160,"//":1161,"ID":1162,"ename":1163,"Ġimage":1164,"ments":1165,"LE":1166,"names":1167,"::":1168,"idth":1169,"Ġlin":1170,"lename":1171,"Ġup":1172,"output":1173,"ix":1174,"ler":1175,"Ġspecified":1176,"aders":1177,"Ġother":1178,"ens":1179,"Name":1180,"sum":1181,"((":1182,"OR":1183,"ents":1184,"clude":1185,"ution":1186,"Ġgroup":1187,"ft":1188,"table":1189,"itle":1190,"so":1191,"Ġclass":1192,"andle":1193,"message":1194,"be":1195,"ME":1196,"Ġoptional":1197,"fil":1198,"lect":1199,"filename":1200,"block":1201,"Ġparams":1202,"lable":1203,"here":1204,"main":1205,"Ġ4":1206,"token":1207,"Ġfirst":1208,"Ġelement":1209,"status":1210,"new":1211,"ĠArgs":1212,"Ġdate":1213,"parse":1214,"annel":1215,"Ġtrans":1216,"ĠParameters":1217,"pts":1218,"Ġcommand":1219,"rid":1220,"ap":1221,"lob":1222,"stri":1223,"etwork":1224,"Ġbool":1225,"ched":1226,"Ġwhen":1227,"tadata":1228,"uration":1229,"Ġover":1230,"view":1231,"yste":1232,"Key":1233,"'])":1234,"ide":1235,"://":1236,"item":1237,"Ġ----------":1238,"input":1239,"Ġ{'":1240,"Ġupdate":1241,"method":1242,"utes":1243,"sk":1244,"Ġinto":1245,"orre":1246,"av":1247,"Data":1248,"lection":1249,"check":1250,"Ġsize":1251,"Ġtuple":1252,"Ġfiles":1253,"Ġtra":1254,"ctionary":1255,"Ġtable":1256,"lib":1257,"Ġlabel":1258,"source":1259,"Ġpos":1260,"ĠCon":1261,"sg":1262,"Ġcontin":1263,"api":1264,"Ġattrib":1265,"rig":1266,"amples":1267,"DE":1268,"arning":1269,"rix":1270,"čĊĠĠĠĠĠĠĠĠĠĠĠ":1271,"ĊĊĠĠĠĠĠĠĠĠĠĠĠĠĠĠĠ":1272,"ries":1273,"ong":1274,"use":1275,"lete":1276,"ins":1277,"rc":1278,"Ġfilename":1279,"ash":1280,"scription":1281,"().":1282,"types":1283,"mi":1284,"face":1285,"nect":1286,"create":1287,"old":1288,"Ġfound":1289,"ĠX":1290,"Ġpoint":1291,"ody":1292,"filter":1293,"Ġgener":1294,"var":1295,"pec":1296,"Ġtoken":1297,"no":1298,"Ġsp":1299,"Ġvariable":1300,"host":1301,"lean":1302,"ume":1303,"clo":1304,"ous":1305,"amp":1306,"umpy":1307,"off":1308,"ors":1309,"oth":1310,"tings":1311,"itial":1312,"Co":1313,"do":1314,"ark":1315,"Ġdoc":1316,"umns":1317,"Ġcontinue":1318,"doc":1319,"ures":1320,"response":1321,"ackage":1322,"process":1323,"ystem":1324,"cre":1325,"(),":1326,"Ġ----":1327,"resh":1328,"ference":1329,"AR":1330,"Ġext":1331,"Ġ__":1332,"ids":1333,"Id":1334,"Ġopen":1335,"ai":1336,"cy":1337,"ging":1338,"Ġpl":1339,"AL":1340,"event":1341,"module":1342,"Ġobj":1343,"Ġ->":1344,"ay":1345,"unk":1346,"Pro":1347,"files":1348,"PI":1349,"ain":1350,"Par":1351,"---":1352,"SE":1353,"raw":1354,"Ġusing":1355,"Ġdoes":1356,"Ġbut":1357,"quence":1358,"AN":1359,"mt":1360,"client":1361,"Ġthen":1362,"andler":1363,"ormal":1364,")))":1365,"dis":1366,"msg":1367,"Ġass":1368,"job":1369,"db":1370,"10":1371,"Ġ...":1372,"quired":1373,"pop":1374,"length":1375,"image":1376,"Ġwork":1377,"Ġmo":1378,"Ġfilter":1379,"htt":1380,"Ġpart":1381,"Ġcontext":1382,"Ġmodule":1383,"core":1384,"Ġiter":1385,"ast":1386,"ible":1387,"float":1388,"ized":1389,"Ġmsg":1390,"ped":1391,"ho":1392,"Ġdefin":1393,"lp":1394,"pping":1395,"auth":1396,"Ġresults":1397,"Ġsign":1398,"]:":1399,"chema":1400,"Ġta":1401,"target":1402,"err":1403,"otal":1404,"cent":1405,"ĊĠĠĠĠĠĠĠĠĠĠĠĠĠĠĠĠĠĠĠĠĠĠĠĠĠĠĠĠĠĠĠ":1406,"idx":1407,"Ġgra":1408,"ĊĠĠĠĠĠĠĠĠĠĠ":1409,"ĠJ":1410,"Ġdictionary":1411,"ches":1412,"Ġparent":1413,"Ġfe":1414,"ats":1415,"match":1416,"ĊĠĠĠĠ":1417,"dire":1418,"cls":1419,"utils":1420,"trans":1421,"rtype":1422,"cul":1423,"Ġver":1424,"iled":1425,"Ġ['":1426,"Ġ--":1427,"pl":1428,"context":1429,"Ġassert":1430,"link":1431,"plot":1432,"`.":1433,"Ġaction":1434,"Ġclient":1435,"rial":1436,"Ġlength":1437,"Ġresource":1438,"pr":1439,"mpty":1440,"Ġsort":1441,"Ġblock":1442,"indow":1443,"Ġoptions":1444,"andom":1445,"Ġyou":1446,"are":1447,"Ġjson":1448,"tag":1449,"Res":1450,"cale":1451,"Ġmake":1452,"command":1453,"tx":1454,"Ġcount":1455,"pri":1456,"ync":1457,"level":1458,"Get":1459,"Ġwhile":1460,"ld":1461,"fore":1462,"Se":1463,"of":1464,"reak":1465,"ud":1466,"Ġcontent":1467,"io":1468,"Ġauth":1469,"ĠSe":1470,"Ġ.":1471,"Ġcls":1472,"content":1473,"TE":1474,"Ġhost":1475,"ved":1476,"find":1477,"Ġreturns":1478,"Ġcur":1479,"entifi":1480,"ted":1481,"Ġparameters":1482,"options":1483,"Ġoff":1484,"Ġwas":1485,"ating":1486,"Ġorder":1487,"Ġarguments":1488,"range":1489,"Ġrecord":1490,"Ġpri":1491,"Ġparameter":1492,"Ġval":1493,"ccess":1494,"mbda":1495,"Ġprovi":1496,"Ġcorre":1497,"Ġsc":1498,"cond":1499,"Ġav":1500,"Ġlast":1501,"sign":1502,")]":1503,"Ġuni":1504,"Ġ5":1505,"Ġprocess":1506,"present":1507,"ĠY":1508,"Ġform":1509,"pend":1510,"ify":1511,"ick":1512,"ĠQ":1513,"Ġqu":1514,"File":1515,"xy":1516,"ĠException":1517,"fter":1518,"Ġ('":1519,"TI":1520,"igh":1521,"session":1522,"Ġextra":1523,"Ġchange":1524,"root":1525,"Ġyield":1526,"Ġindi":1527,"Ġserver":1528,"[-":1529,"Ġreturned":1530,"formation":1531,"queue":1532,"ready":1533,"Ġact":1534,"ĊĠĠĠĠĠĠĠĠĠĠĠĠĠ":1535,"Ġad":1536,"Set":1537,"right":1538,"Ġsame":1539,"rt":1540,"Ġproper":1541,"play":1542,"coding":1543,"Ġoper":1544,"part":1545,"Ġneed":1546,"Ġback":1547,"swith":1548,"Ġcolumn":1549,"'))":1550,"64":1551,"imum":1552,"replace":1553,"temp":1554,"lines":1555,"Ġ-------":1556,"viron":1557,"Ġfol":1558,"iss":1559,"Ġdirectory":1560,"man":1561,"Ġstatus":1562,"Ġparser":1563,"ĠCo":1564,"Ġnames":1565,"strip":1566,"Ġchar":1567,"cate":1568,"rit":1569,"Ġhtt":1570,"čĊĠĠĠ":1571,"Ġed":1572,"Ġmult":1573,"Ġq":1574,"PE":1575,"Ġarg":1576,"Ġmode":1577,"efault":1578,"number":1579,"ner":1580,"stamp":1581,"Ġcase":1582,"Ġsys":1583,"mode":1584,"List":1585,"su":1586,"cket":1587,"Ġdiff":1588,"ome":1589,"width":1590,"Ġwhere":1591,"change":1592,"dim":1593,"32":1594,"prefix":1595,"frame":1596,"ĠID":1597,"color":1598,"copy":1599,"store":1600,"Ar":1601,"De":1602,"ĊĠĠĠĠĠĠĠĠĠĠĠĠ":1603,"Ġtask":1604,"ĊĊĠ":1605,"comm":1606,"Un":1607,"Ġload":1608,"itions":1609,"Ġkeys":1610,"ĠSt":1611,")):":1612,"current":1613,"cmd":1614,"order":1615,"RL":1616,"ert":1617,"ĠAn":1618,"lower":1619,"parent":1620,"ose":1621,"'),":1622,"12":1623,"cache":1624,"wise":1625,"})":1626,"req":1627,"Ġport":1628,"ĠGet":1629,"ative":1630,"Ġfind":1631,"Ġtag":1632,"vid":1633,"lobal":1634,"AC":1635,"Ġshape":1636,"last":1637,"Ġtimeout":1638,"TP":1639,"ization":1640,"Ġbreak":1641,"'].":1642,"Ġsession":1643,"Ġnumpy":1644,"Ġnext":1645,"ailable":1646,"ĠReturn":1647,"resource":1648,"uri":1649,"ingle":1650,"Ġheader":1651,"attern":1652,"address":1653,"Element":1654,"Ġaxis":1655,"Ġallow":1656,"(*":1657,"yle":1658,"limit":1659,"loc":1660,"lease":1661,"function":1662,"Ġparse":1663,"ib":1664,"vis":1665,"']:":1666,"ties":1667,"ĠType":1668,"Ġpage":1669,"header":1670,"Ċĉĉĉ":1671,"fields":1672,"Ġmore":1673,"},":1674,"ises":1675,"Ġlocal":1676,"gen":1677,"Ġchild":1678,"env":1679,"Ġdel":1680,"To":1681,"Ġcolor":1682,"Ġalready":1683,"ell":1684,"EN":1685,"DO":1686,"Ġrepresent":1687,"du":1688,"Ġsalt":1689,"print":1690,"lication":1691,"Ġservice":1692,"axis":1693,"http":1694,"ĠFor":1695,"...":1696,"Ġthan":1697,"Ġorig":1698,"server":1699,"Ġfla":1700,"ols":1701,"vector":1702,"Ġobjects":1703,"ster":1704,"Ġroot":1705,"uto":1706,"search":1707,"Ġ'.":1708,"Ġsupport":1709,"mary":1710,"Ġmay":1711,"Ġag":1712,"conds":1713,"element":1714,"ring":1715,"net":1716,"exist":1717,"argument":1718,"Ġplot":1719,"Ġpas":1720,"Ġinte":1721,"Ġthere":1722,"Ġexception":1723,"uid":1724,"Me":1725,"Ġdf":1726,"top":1727,"pass":1728,"child":1729,"title":1730,"Exception":1731,"ans":1732,"FI":1733,"offset":1734,"ffer":1735,"struct":1736,"Ġsingle":1737,"LO":1738,"like":1739,"cor":1740,"mplement":1741,"Ġref":1742,"ister":1743,"ĊĠĠĠĠĠĠ":1744,"Ġcallback":1745,"Ġfields":1746,"Ġentry":1747,"Ġlimit":1748,"zer":1749,"entifier":1750,"ternal":1751,"ustom":1752,"Ġinfo":1753,"Ġtw":1754,"stra":1755,"Ġcmd":1756,"Ġheaders":1757,"ret":1758,"ential":1759,"graph":1760,"Ġman":1761,"Ġdtype":1762,"SI":1763,"open":1764,"Ġlay":1765,"Ġprovided":1766,"yload":1767,"Value":1768,"mail":1769,"ĊĠĠĠĠĠĠĠĠĊĠĠĠĠĠĠĠ":1770,"mission":1771,"contain":1772,"]]":1773,"Di":1774,"Ġhelp":1775,"fy":1776,"atures":1777,"Ġattribute":1778,"mote":1779,"Ġtest":1780,"ymb":1781,"Ġ'%":1782,"pected":1783,"Ġexec":1784,"RO":1785,"ĠSet":1786,"ĠKey":1787,"Ġbet":1788,"Ġtemplate":1789,"page":1790,"pth":1791,"wait":1792,"========":1793,"hether":1794,"Ġenum":1795,"Ġlogging":1796,"Ġoffset":1797,"Ġinformation":1798,"stream":1799,"Ġsearch":1800,"ager":1801,"les":1802,"task":1803,"Ġdest":1804,"LI":1805,"(_":1806,"Ġlevel":1807,"script":1808,"']['":1809,"Ġnon":1810,"exception":1811,"ĠDefault":1812,"exec":1813,"Ġ>=":1814,"Ġinclude":1815,"ql":1816,"Ġpassed":1817,"Ġconnection":1818,"({":1819,"########":1820,"record":1821,"Frame":1822,"GE":1823,"Ġhasattr":1824,"gener":1825,"Ġtemp":1826,"Ġtf":1827,"Ġproject":1828,"local":1829,"ency":1830,"ML":1831,"Ġattr":1832,"erge":1833,"Ġsome":1834,"cli":1835,"flow":1836,"`,":1837,"ween":1838,"close":1839,"ĊĠĠĠĠĠĠĠĠĠĠĠĠĠĠĠĠĠ":1840,"Return":1841,"round":1842,"Ġfunc":1843,"Ġab":1844,"ĠData":1845,"uni":1846,"Ġprefix":1847,"Ġdim":1848,"ont":1849,"Ġbytes":1850,"las":1851,"pon":1852,"Ġlines":1853,"000":1854,"Ġstream":1855,"mask":1856,"Ġcontaining":1857,"gor":1858,"callback":1859,"hash":1860,"Ser":1861,"gment":1862,"Ġmetadata":1863,"Ġ<=":1864,"ĠAdd":1865,"ice":1866,"test":1867,"html":1868,"``.":1869,"Ġcoord":1870,"CO":1871,"Ġits":1872,"send":1873,"Ġinst":1874,"Ġvi":1875,"ĊĠĠĠĠĠĠĠĠĠĠĠĠĠĠĠĠĠĠĠĠĠĠĠĠĠĠĠĠĠĠĠĠĠĠĠĠĠĠĠĠĠĠĠĠĠĠĠĠ":1876,"Ġ\"\"":1877,"uster":1878,"Ġremove":1879,"nown":1880,"metadata":1881,"mag":1882,"remove":1883,"Ġaddress":1884,"returns":1885,"SS":1886,"Ġcache":1887,"term":1888,"ities":1889,"ĊĠĠĠĠĠĠĠĠĠĠĠĠĠĠĠĠĠĠĠĠĠ":1890,"Ġmatrix":1891,"Ġmap":1892,"ility":1893,"cope":1894,"connect":1895,"[:,":1896,"ass":1897,"box":1898,"bytes":1899,"ĠCreate":1900,"Ġjob":1901,"section":1902,"Ġsum":1903,"Ġafter":1904,"Ġign":1905,"init":1906,"erate":1907,"----------------":1908,"gram":1909,"lation":1910,"Ġlocation":1911,"char":1912,"Ġdist":1913,"ugh":1914,"ĠDe":1915,"sor":1916,"Ġ&":1917,"Ġcopy":1918,"Ġwrite":1919,"Ġconvert":1920,"encode":1921,"project":1922,"mon":1923,"datetime":1924,"std":1925,"channel":1926,"headers":1927,"go":1928,"Ġinitial":1929,"bose":1930,".')":1931,"cat":1932,"ĠWe":1933,"del":1934,"tree":1935,"Ġdatetime":1936,"Ġitems":1937,"Ġrequired":1938,"location":1939,"olume":1940,"}'.":1941,"]))":1942,"Ġcomm":1943,"ensions":1944,"UT":1945,"points":1946,"pper":1947,"ocket":1948,"Ġbefore":1949,"sort":1950,"qual":1951,"Ġweight":1952,"Ġcl":1953,"Ġ6":1954,"Ġph":1955,"fn":1956,"orage":1957,"Ġpackage":1958,"bin":1959,"service":1960,"Ġdataset":1961,"Ġcomple":1962,"ear":1963,"Ġthread":1964,"parser":1965,"Ġbody":1966,"Ġerrors":1967,"Ġstruct":1968,"template":1969,"TTP":1970,".\")":1971,"post":1972,"ensor":1973,"startswith":1974,"Time":1975,"ither":1976,"exp":1977,"ĊĠĠĠĠĠĠĠĠĠĠĠĠĠĠĠĠĠĠ":1978,"ĠTypeError":1979,"ĊĠĠĠĠĠĠĠĠĠĠĠĠĠĠĠĠĠĠĠĠ":1980,"idget":1981,"Ġlink":1982,"itional":1983,"the":1984,"Ġconfiguration":1985,"Ġdevice":1986,"rap":1987,"Ġsample":1988,"Ġbetween":1989,"čĊ":1990,"ownload":1991,"Ġgetattr":1992,"Ġfollow":1993,"Ġclo":1994,"ful":1995,"bro":1996,"25":1997,"fla":1998,"logger":1999,"Ġavailable":2000,"ĠPy":2001,"util":2002,"RI":2003,"licy":2004,"Ġtop":2005,"verse":2006,"UL":2007,"ake":2008,"ges":2009,"Ġgraph":2010,"variable":2011,"Ġsequence":2012,"={":2013,"wer":2014,"dist":2015,"build":2016,"Ġchannel":2017,"Ġword":2018,"ĠList":2019,"ĊĠĠĠĠĠĠĠĠĠĠĠĠĠĠĠĠĠĠĠĠĠĠĠĠĠĠĠĠĠĠĠĠĠĠĠ":2020,"handle":2021,"\"):":2022,"99":2023,"Ġcom":2024,"Ġter":2025,"nodes":2026,"onent":2027,"Ġmem":2028,"Ġdb":2029,"Ġframe":2030,"rs":2031,"Ġnetwork":2032,"cry":2033,"opts":2034,"ĠPro":2035,"Ġsend":2036,"Ġnormal":2037,".,":2038,"spec":2039,"timeout":2040,"Sub":2041,"Ġexp":2042,"ification":2043,"pol":2044,"ĠAPI":2045,"ttrib":2046,"ored":2047,"exists":2048,"only":2049,"bar":2050,"bool":2051,"Ġ10":2052,"Ġcolumns":2053,"ĊĠĠĠĠĠĠĠĠĠĠĠĠĠĠĠĠĠĠĠĠĠĠĠĠĠĠĠĠ":2054,"ym":2055,"ward":2056,"ank":2057,"ĊĠĠĠĠĠĠĠĠĠĠĠĠĠĠ":2058,"Ġapi":2059,"Ġold":2060,"ux":2061,"MA":2062,"ĠK":2063,"Ġenumerate":2064,"abled":2065,"si":2066,"lear":2067,"mod":2068,"Ġfull":2069,"ĊĠĠĠĠĊĠĠĠ":2070,"my":2071,"Ġdocument":2072,"Ġtwo":2073,"Ġali":2074,"stack":2075,"itor":2076,"ĊĠĠĠĠĠĠĠĠĠĠĠĠĠĠĠĠĠĠĠĠĠĠĠĠĠ":2077,"NA":2078,"settings":2079,"SON":2080,"tric":2081,"Ġempty":2082,"bit":2083,"ination":2084,"izer":2085,"Ġvar":2086,"ĠUn":2087,"Ġlook":2088,"dtype":2089,"let":2090,"est":2091,"Ġnamespace":2092,"AD":2093,"container":2094,"16":2095,"pha":2096,"ular":2097,"Ġgen":2098,":]":2099,"difi":2100,"Ġsorted":2101,"fer":2102,"Ch":2103,"mem":2104,"side":2105,"connection":2106,"fl":2107,"lper":2108,"column":2109,"proper":2110,"delete":2111,"Ġ]":2112,"Ġ8":2113,"TY":2114,"Ġcalled":2115,"Add":2116,"pub":2117,"xml":2118,"ptional":2119,"weight":2120,"Ġpassword":2121,"Ġnodes":2122,"]['":2123,"Ġtitle":2124,"utf":2125,"ions":2126,"ĊĠĠĠĠĠĠĠĠĠĠĠĠĠĠĠĠĠĠĠĠĠĠ":2127,"Ġbeen":2128,"Ġbuild":2129,"Ġhandle":2130,"ING":2131,"Ġtotal":2132,"very":2133,"Ġalso":2134,"ĠTO":2135,"pk":2136,"warning":2137,"pression":2138,"The":2139,"gr":2140,"tuple":2141,"peri":2142,"now":2143,"cf":2144,"ĠCheck":2145,"Ġcreated":2146,"ics":2147,"body":2148,"serial":2149,"Ġ''":2150,"entry":2151,"itude":2152,"Ġsk":2153,"Ġraw":2154,"network":2155,"olean":2156,"etch":2157,"ait":2158,"Ġerr":2159,"iple":2160,"vals":2161,"čĊĠĠĠĠĠĠĠĠĠĠĠĠĠĠĠ":2162,"vices":2163,"over":2164,"istr":2165,"meta":2166,"comment":2167,"entity":2168,"columns":2169,"vironment":2170,"riter":2171,"org":2172,"Ġexists":2173,"Ġbin":2174,"ĊĠĠĠĠĠĠĠĠĠĠĠĠĠĠĠĠĠĠĠĠĠĠĠĠĠĠĠĠĠĠĠĠĠĠĠĠĠĠĠĠĠĠĠĠĠĠĠĠĠĠĠĠĠĠĠĠ":2175,"Ġchunk":2176,"uage":2177,"Fa":2178,"(**":2179,"11":2180,"coord":2181,"anguage":2182,"rop":2183,"seq":2184,"other":2185,"ĠNot":2186,"results":2187,"ugin":2188,"lasses":2189,"Ġcalcul":2190,"-+":2191,"lambda":2192,"cho":2193,"decode":2194,"Ġreference":2195,"0000":2196,"Ġlike":2197,"issing":2198,"sample":2199,"Ġpoints":2200,"Ġdiffe":2201,"sup":2202,"Ġsee":2203,"ĊĠĠĠĠĠĠĠĠĠĠĠĠĠĠĠĠĠĠĠĠĠĠĠĠĠĠĠĠĠ":2204,"ĠET":2205,"save":2206,"Ġsettings":2207,"quire":2208,"conf":2209,"Ġbound":2210,"=[":2211,"ĠRa":2212,"Lo":2213,"speci":2214,"tails":2215,"Ġdescription":2216,")[":2217,"mark":2218,"pack":2219,"next":2220,"irs":2221,"Ġfinal":2222,"ants":2223,"lice":2224,"older":2225,"Ġsave":2226,"medi":2227,"Ġmask":2228,"ymbol":2229,"Not":2230,"derr":2231,"gest":2232,"parameters":2233,"grid":2234,"ĊĠĠĠĠĠĠĠĠĠĠĠĠĠĠĠĠĠĠĠĠĠĠĠĠĠĠ":2235,"step":2236,"labels":2237,"roll":2238,"extra":2239,"try":2240,"olution":2241,"CE":2242,"batch":2243,"description":2244,"full":2245,"pace":2246,"ttribute":2247,"ob":2248,"ĠSee":2249,"Ġgo":2250,"Ġshow":2251,"tocol":2252,"ride":2253,"ĠURL":2254,"layer":2255,"dered":2256,"gex":2257,"Ġdatabase":2258,"Ġkeyword":2259,"Ġpi":2260,"Col":2261,"Ġop":2262,"Ġlat":2263,"\\\\":2264,"Ġattributes":2265,"ush":2266,"Ġsuccess":2267,"Ġsection":2268,"Ġtypes":2269,"hed":2270,"Ġexample":2271,"paths":2272,"ript":2273,"ng":2274,"Ġstep":2275,"UN":2276,"alog":2277,"cp":2278,"rol":2279,"Ġhash":2280,"arn":2281,"Ġenv":2282,"Ġcharact":2283,"ponse":2284,"vious":2285,"pdate":2286,"'][":2287,"CH":2288,"Ġwidth":2289,"Ġposition":2290,"ined":2291,"Ġbased":2292,"comple":2293,"PO":2294,"clu":2295,"Ġdefined":2296,"indi":2297,"ĠExample":2298,"``,":2299,"mean":2300,"').":2301,"den":2302,"cade":2303,"Ġlib":2304,"left":2305,"Ġencoding":2306,"has":2307,"Ġpub":2308,"Ġthem":2309,"Ġtree":2310,"Ġpython":2311,"__['":2312,"oper":2313,"matrix":2314,"mg":2315,"alys":2316,"Ġsplit":2317,"extend":2318,"Ġrequests":2319,"Ġcli":2320,"Ġselect":2321,"Ġstop":2322,"Ġrandom":2323,"umber":2324,"stat":2325,"mult":2326,"annot":2327,"Ġwhether":2328,"objects":2329,"Ġaccess":2330,"ves":2331,"Ġ'/":2332,"Ġdepend":2333,"addr":2334,"salt":2335,"diff":2336,"style":2337,"aded":2338,"ĠIt":2339,"Ġhttp":2340,"Ġidx":2341,"Ġob":2342,"package":2343,"keep":2344,"Ġjust":2345,"Ġcollection":2346,"device":2347,"ĠTODO":2348,"Config":2349,"MP":2350,"pc":2351,"Ġlabels":2352,":`~":2353,"Ġfeature":2354,"unter":2355,"dump":2356,"Object":2357,"oci":2358,"Ġ'-":2359,"Ġview":2360,"orig":2361,"FA":2362,"password":2363,"ĠNote":2364,"ATE":2365,"DI":2366,"Ġdelete":2367,"bound":2368,"Ġeither":2369,"Ġlayer":2370,"Ġwant":2371,"Ġind":2372,"Ġreplace":2373,"ffix":2374,"Create":2375,"alid":2376,"vate":2377,"No":2378,"Ġstd":2379,"Ġschema":2380,"schema":2381,"Ġexisting":2382,"Ġcontainer":2383,"inst":2384,"rapper":2385,"Ġ\"%":2386,"Ġvector":2387,"Ġbatch":2388,"stead":2389,"Ġelements":2390,"ĠKeyError":2391,"entic":2392,"ĠRun":2393,"Ġforce":2394,"LA":2395,"Ġopt":2396,"thing":2397,"gress":2398,"rm":2399,"Ġrule":2400,"na":2401,".\"":2402,"ww":2403,"ssible":2404,"Ġsa":2405,"zone":2406,"profile":2407,"ince":2408,"gin":2409,"cies":2410,"20":2411,"Ġpost":2412,"Dict":2413,"valu":2414,"src":2415,"Ġinteger":2416,"Ġcorrespon":2417,"Ġaccount":2418,"Ġconnect":2419,"Ġvari":2420,"Ġstrings":2421,"','":2422,"Path":2423,"Ġ'{":2424,"Ġprofile":2425,"Ġotherwise":2426,")),":2427,"Ġright":2428,"olve":2429,"first":2430,"exc":2431,"ranch":2432,"wh":2433,"Ġmark":2434,"stop":2435,"ribution":2436,"Ġtmp":2437,"Ġsuper":2438,"posit":2439,"rary":2440,"groups":2441,"med":2442,"rough":2443,"ĠJSON":2444,"sa":2445,"Ġsystem":2446,"CT":2447,"Ġoriginal":2448,"crypt":2449,"active":2450,"ily":2451,"handler":2452,"delta":2453,"brocade":2454,"requ":2455,"FF":2456,"Ġpayload":2457,"cause":2458,"ĠName":2459,"domain":2460,"tr":2461,"]):":2462,"reshold":2463,"'''":2464,"duct":2465,"rule":2466,"Request":2467,"Class":2468,"vari":2469,"rate":2470,"Ġzip":2471,"Ġexc":2472,"tags":2473,"ĠDi":2474,"Ġhere":2475,"dataset":2476,"stats":2477,"math":2478,"access":2479,"random":2480,"fs":2481,"system":2482,"ĠRes":2483,"helper":2484,"show":2485,"Th":2486,"igma":2487,"Invalid":2488,"En":2489,"alysis":2490,"zip":2491,"sys":2492,"ven":2493,"raph":2494,"ias":2495,"ĠHTTP":2496,"Ġoperation":2497,"-+-+":2498,"Ġvariables":2499,"opt":2500,"raise":2501,"Ġhandler":2502,"Ġcoordin":2503,"samples":2504,"ten":2505,"ived":2506,"gory":2507,"Ġsi":2508,"Ġdesc":2509,"rows":2510,"direct":2511,"Ġthey":2512,"zeros":2513,"=(":2514,"Ġcontains":2515,"true":2516,"Ġglobal":2517,"lied":2518,"Ġfl":2519,"}\".":2520,"Ġinstead":2521,"Ġmeta":2522,"eded":2523,"ason":2524,"Ġqueue":2525,"rec":2526,"atter":2527,"ĠLO":2528,"TION":2529,"ings":2530,"ctions":2531,"TYPE":2532,"ĠRaises":2533,"tmp":2534,"Ġcond":2535,"Ġrows":2536,"ton":2537,"Ġcustom":2538,"Ġpla":2539,"rel":2540,"Ġnow":2541,"redential":2542,"shot":2543,"Ġlambda":2544,"ply":2545,"Po":2546,"Ġstat":2547,"nder":2548,"Ġwait":2549,"unit":2550,"dev":2551,"Ġregion":2552,"mal":2553,"ransp":2554,"Returns":2555,"OT":2556,"ero":2557,"Ġge":2558,"Cont":2559,"ators":2560,"directory":2561,"verage":2562,"Ġfollowing":2563,"Ġmapping":2564,"cell":2565,"ĊĠĠĠĠĠĠĠĠĠĠĠĠĠĠĠĠĠĠĠĠĠĠĠĠĠĠĠĠĠĠ":2566,"mplemented":2567,"ĠMe":2568,"Ġ'_":2569,"ndarray":2570,"Ġdon":2571,"Ġfig":2572,"onents":2573,"Ġmissing":2574,"txt":2575,"ie":2576,"Ġfailed":2577,"Ġwindow":2578,"Ġunicode":2579,"Ġignore":2580,"ices":2581,"total":2582,"Ġtags":2583,"Ġleft":2584,"CON":2585,"ĠLo":2586,"nap":2587,"Ġopts":2588,"ĠPython":2589,"optional":2590,"wd":2591,"ink":2592,"Ġdistance":2593,"Ġsent":2594,"Ġhttps":2595,"ĠOptional":2596,"rip":2597,"abs":2598,"tect":2599,"Ġ'\\":2600,"Ġ[\"":2601,"Ġip":2602,"Ġmultiple":2603,"ware":2604,"IT":2605,"Ġdir":2606,"Ġplt":2607,"Ġseconds":2608,"Ġunique":2609,"Ġdirect":2610,"Node":2611,"\"],":2612,"Ġremo":2613,"az":2614,"day":2615,"Ġus":2616,"04":2617,"String":2618,"height":2619,"Ġsix":2620,"ĠTo":2621,"username":2622,"python":2623,"fra":2624,"book":2625,"NAME":2626,"SubElement":2627,"ker":2628,"Log":2629,"Ġpattern":2630,"vo":2631,"gy":2632,"sv":2633,"Ġ(\"":2634,"Ġsupported":2635,"Ġunit":2636,"hell":2637,"select":2638,"Ġremote":2639,"Ġdifferent":2640,"buffer":2641,"Form":2642,"Ġmean":2643,"ffect":2644,"Ġsrc":2645,"dest":2646,"Ġpd":2647,"her":2648,"ET":2649,"itch":2650,"Ġ',":2651,"ULT":2652,"Ġproperties":2653,"andard":2654,"Ite":2655,"Ġusername":2656,"normal":2657,"EL":2658,"Ġfail":2659,"02":2660,"ĠWh":2661,"gorith":2662,"ek":2663,"Ġadded":2664,"Ġserial":2665,"ered":2666,"Ġ7":2667,"Ġpk":2668,"aml":2669,"lative":2670,"timestamp":2671,"namespace":2672,"Ġloop":2673,"Ġverbose":2674,"interface":2675,"alled":2676,"make":2677,"Ġabs":2678,"Ġparsed":2679,"position":2680,"cret":2681,"termin":2682,"Ġpresent":2683,"eve":2684,"hist":2685,"Index":2686,"Ġspecify":2687,"dot":2688,"ites":2689,"async":2690,"Ġskip":2691,"Ġund":2692,"Ġ{\"":2693,"Ġpol":2694,"ced":2695,"Ġsignal":2696,"tach":2697,"Ġpe":2698,"account":2699,"down":2700,"stim":2701,"Ġrece":2702,"Ġsecond":2703,"uture":2704,"indices":2705,"NT":2706,"Ġawait":2707,"Ġgenerate":2708,"Ġassoci":2709,"Ġ{}\".":2710,"Check":2711,"Ġprevious":2712,"fici":2713,"Ġwarning":2714,"can":2715,"Ġmy":2716,"chron":2717,"andas":2718,"Ġbecause":2719,"asure":2720,"Ġlong":2721,"curs":2722,"Ġreport":2723,"SC":2724,"straint":2725,"Ġ\".":2726,"15":2727,"ually":2728,"mount":2729,"Ġrel":2730,"Ġproperty":2731,"Ġstore":2732,"\"])":2733,"way":2734,"24":2735,"ĠUse":2736,"Ġcons":2737,"istry":2738,"scale":2739,"Ġmain":2740,"Ġinvalid":2741,"Ġsim":2742,"Ġdisplay":2743,"models":2744,"const":2745,"Ġedge":2746,"Ġtake":2747,"ĠComp":2748,"known":2749,"exit":2750,"ĊĊĠĠĠĠĠĠĠĠĠĠĠĠĠĠĠĠĠĠĠ":2751,"Ġwithin":2752,"Ġflag":2753,"chunk":2754,"Response":2755,"plo":2756,"errors":2757,"ĠLOG":2758,"Qu":2759,"Ġexpected":2760,"Ġresp":2761,"Ġnote":2762,"Comp":2763,"Ġextract":2764,"ences":2765,"ighb":2766,"serv":2767,"ways":2768,"Ġconn":2769,"Ġthrough":2770,"Ġiss":2771,"State":2772,"stdout":2773,"'}":2774,"pository":2775,"cc":2776,"Ġheight":2777,"gre":2778,"Ġdomain":2779,"Ġtheir":2780,"Ġpossible":2781,"stru":2782,"ynchron":2783,"pattern":2784,"chain":2785,"ĠGener":2786,"Ġregister":2787,"import":2788,"rest":2789,"Ġbyte":2790,"Ġinterface":2791,"Ġtimestamp":2792,"au":2793,"Ġsamples":2794,"Ġappro":2795,"ured":2796,"cut":2797,"ian":2798,"Ġsepar":2799,"river":2800,"sq":2801,"Ġmaximum":2802,"Array":2803,"Ġidentifier":2804,"ared":2805,"Ġdisable":2806,"</":2807,"proxy":2808,"cker":2809,"Ġcent":2810,"ĉĉ":2811,"ely":2812,"fit":2813,"Ġtrue":2814,"ithub":2815,"window":2816,"Ġtrain":2817,"ift":2818,"attrs":2819,"depth":2820,"ier":2821,"vider":2822,"ANG":2823,"Ġmerge":2824,"ater":2825,"Ġxml":2826,"Ġindices":2827,"Ġmon":2828,"numpy":2829,"Ġvis":2830,"calar":2831,"execute":2832,"Ġcorrect":2833,"FAULT":2834,"gorithm":2835,"]),":2836,"methods":2837,"sl":2838,"ĊĠĠĠĠĠĠĠĠĠĠĠĠĠĠĠĠĠĠĠĠĠĠĠĠĠĠĠĠĠĠĠĠĠ":2839,"Ġmod":2840,"Text":2841,"sets":2842,"angle":2843,"ĠSer":2844,"Ġsuch":2845,"oto":2846,"ĊĠĠĠĠĠĠĠĠĠĠĠĠĠĠĠĠĠĠĠĠĠĠĠĠĠĠĠĠĠĠĠĠĠĠĠĠĠĠĠ":2847,"Ġstack":2848,"Ġbeing":2849,"ically":2850,"Ġgrid":2851,"Ġspecific":2852,"Ġspec":2853,"cast":2854,"train":2855,"tract":2856,"Ġscale":2857,"Ġdecor":2858,"ĠAttribute":2859,"upper":2860,"andid":2861,"mbed":2862,"uted":2863,"properties":2864,"ĠIP":2865,"sequence":2866,"Ġmatches":2867,"AB":2868,"Ġwithout":2869,"Ġyour":2870,"Ġpaths":2871,"cores":2872,"Ġtransform":2873,"čĊčĊĠĠĠĠĠĠĠ":2874,"desc":2875,"site":2876,"raises":2877,"thread":2878,"Ġendpoint":2879,"Ġ9":2880,"Ġboth":2881,"Ġkeep":2882,"Ġsite":2883,"factor":2884,"bl":2885,"Ġassign":2886,"git":2887,"Ġ):":2888,"non":2889,"encies":2890,"napshot":2891,"conn":2892,"DB":2893,"ĠOn":2894,"Ġcell":2895,"Ġaccept":2896,"50":2897,"Ġevery":2898,"Ġctx":2899,"ä¸":2900,"Item":2901,"manager":2902,"80":2903,"Ġboolean":2904,"Event":2905,"Ġdebug":2906,"repo":2907,"actions":2908,"until":2909,"Ġenvironment":2910,"latform":2911,"empty":2912,"men":2913,"global":2914,"Ġfit":2915,"dified":2916,"Ġthese":2917,"/{":2918,"bab":2919,"case":2920,"Ġcorresponding":2921,"Ġhist":2922,"US":2923,"features":2924,"coder":2925,"lector":2926,"Ġinit":2927,"Sh":2928,"poch":2929,"lap":2930,"Found":2931,"vars":2932,"lem":2933,"Ġabout":2934,"late":2935,"oid":2936,"IO":2937,"cle":2938,"KE":2939,"feature":2940,"head":2941,"Ġreal":2942,"coded":2943,"TR":2944,"any":2945,"reference":2946,"ia":2947,".'":2948,"inis":2949,"uplic":2950,"33":2951,"lab":2952,"initial":2953,"meth":2954,"tax":2955,"Ġrunning":2956,"ĊĊĠĠĠĠĠ":2957,"mbers":2958,"required":2959,"An":2960,"ross":2961,"Ġpop":2962,"Ġretri":2963,"Info":2964,"loop":2965,"just":2966,"region":2967,"ĠĊĠĠĠĠĠĠĠ":2968,"Ġsure":2969,"seconds":2970,"ended":2971,"arr":2972,"Ġclean":2973,"('\\":2974,"tf":2975,"Ġexpression":2976,"Ġindic":2977,"ĊĠĠĠĠĠĠĠĠĠĠĠĠĠĠĠĠĠĠĠĠĠĠĠĠĠĠĠĠĠĠĠĠĠĠ":2978,"cer":2979,"Ġapply":2980,"Model":2981,"https":2982,"Ġ'--":2983,"Ġzero":2984,"Ġstyle":2985,"classes":2986,"Ġfix":2987,"vision":2988,"Ġ'*":2989,"requency":2990,"Ġstructure":2991,"esc":2992,"stderr":2993,"redentials":2994,"edge":2995,"Ġvert":2996,"Ġreq":2997,"Failed":2998,"Ġrest":2999,"mapping":3000,"ĠSh":3001,"Ġconf":3002,"Ġcomponent":3003,"gine":3004,"Ġweights":3005,"board":3006,"ground":3007,"Ġdoesn":3008,"TER":3009,"cloud":3010,"Ġwrit":3011,"ire":3012,"Ġcho":3013,"Ġcannot":3014,"transform":3015,"ogle":3016,"tc":3017,"_,":3018,"lan":3019,"Ġaut":3020,"alle":3021,"Ġcluster":3022,"Ġ201":3023,"gments":3024,"encoding":3025,"ynchronous":3026,"Ġmatching":3027,"ws":3028,"55":3029,"SO":3030,"score":3031,"less":3032,"Ġunder":3033,"Ġinclu":3034,"Ġdefaults":3035,"patch":3036,"_{":3037,"insert":3038,"greg":3039,"Ġcate":3040,"termine":3041,"ilter":3042,"Ġspace":3043,"andl":3044,"Client":3045,"19":3046,"folder":3047,"lig":3048,"Ġ{}'.":3049,"Ġscope":3050,"Message":3051,"common":3052,"User":3053,"Ġvolume":3054,"ported":3055,"cheme":3056,"Ġdelta":3057,":%":3058,"Ġseries":3059,"trics":3060,"okup":3061,"Ġbit":3062,"201":3063,"collection":3064,"[:-":3065,"idden":3066,"Read":3067,"bers":3068,"tail":3069,"uild":3070,"alcul":3071,"Ġfn":3072,"added":3073,"__,":3074,"Ġcould":3075,"attributes":3076,"year":3077,"ivity":3078,"EX":3079,"ority":3080,"Ġ100":3081,"Ġmessages":3082,"14":3083,"DataFrame":3084,"used":3085,"Ġtimes":3086,"DF":3087,"Ġnd":3088,"af":3089,"validate":3090,"Ġhow":3091,"Ġvalidate":3092,"ik":3093,"eps":3094,"lim":3095,"VER":3096,"Ġsince":3097,"ĠZ":3098,"lish":3099,"itive":3100,"tom":3101,"30":3102,"Ġmemory":3103,"By":3104,"ĊĠĠĠĠĠĠĠĠĠĠĠĠĠĠĠĠĠĠĠĠĠĠĠĠĠĠĠĠĠĠĠĠĠĠĠĠ":3105,"Ġtr":3106,"Ġconst":3107,"children":3108,"ertifi":3109,"Ġang":3110,"vers":3111,"ives":3112,"GER":3113,"aries":3114,"Ġstats":3115,"Ġagain":3116,"atio":3117,"pid":3118,"tered":3119,"norm":3120,"Ġcallable":3121,"scope":3122,"Ġ'{}":3123,"ulation":3124,"words":3125,"parts":3126,"licit":3127,"izes":3128,"Ġ12":3129,"100":3130,"=%":3131,"Ġparts":3132,"Ġallowed":3133,"ient":3134,"warn":3135,"Result":3136,"vec":3137,"center":3138,"Ġevents":3139,"Ġscript":3140,"dius":3141,"Ġchanges":3142,"sure":3143,"Parser":3144,"nan":3145,"Ġpipe":3146,"email":3147,"SH":3148,"ness":3149,"where":3150,"################":3151,"}.":3152,"SP":3153,"ĠAttributeError":3154,"dt":3155,"Ġassociated":3156,"depend":3157,"Ġcompute":3158,"TO":3159,"NO":3160,"ctx":3161,"Instance":3162,"Field":3163,"Ġseq":3164,"Ġalpha":3165,"Ġlon":3166,"adding":3167,"Ġhigh":3168,"card":3169,"payload":3170,"units":3171,"vm":3172,"cols":3173,"ending":3174,"lon":3175,"*(":3176,"series":3177,"\"))":3178,"('/":3179,"ha":3180,"Ġdone":3181,"ferences":3182,"Ġtokens":3183,"ision":3184,"ĠExamples":3185,"Ġfunctions":3186,"Ġow":3187,"bits":3188,"Ġda":3189,"Ġestim":3190,"tools":3191,"leg":3192,"Ġsocket":3193,"ĊĊĉ":3194,"Ġdepth":3195,"cfg":3196,"ED":3197,"Ġwould":3198,"Ġlower":3199,"hex":3200,"ox":3201,"identifier":3202,"IP":3203,"leep":3204,"Ġutils":3205,"Ġroute":3206,"AP":3207,"interval":3208,"uuid":3209,"leted":3210,"docs":3211,"ĠRuntime":3212,"csv":3213,"Ġentity":3214,"Ġapplication":3215,"olute":3216,"ynam":3217,"Ġflags":3218,"ometry":3219,"Ġfeatures":3220,"Ġnet":3221,"MO":3222,"Ġour":3223,"ensity":3224,"policy":3225,"ĠWhen":3226,"Ġcomment":3227,"Ġequal":3228,"dr":3229,"ĠCLI":3230,"()):":3231,"Ġfactor":3232,"iod":3233,"omat":3234,"auto":3235,"Ġrelative":3236,"Ġyang":3237,"eno":3238,"Ġcursor":3239,"Ġneeded":3240,"Or":3241,"Ġimp":3242,"atten":3243,"Ġemail":3244,"report":3245,"}\\":3246,"Run":3247,"rf":3248,"Ġfra":3249,"}{":3250,"Ġproxy":3251,"Ġiterable":3252,"als":3253,"Ġdownload":3254,"exceptions":3255,"Ġalign":3256,"GET":3257,"Ġclose":3258,"Ġtri":3259,"Ġbest":3260,"Ġcontents":3261,"aly":3262,"URL":3263,"Ġvia":3264,"Ġwhat":3265,"Ġpix":3266,"\"),":3267,"Ġevalu":3268,"(-":3269,"ĠFile":3270,"pac":3271,"Ġbinary":3272,"Ġtx":3273,"Ġdt":3274,"Ġoc":3275,"UR":3276,"endswith":3277,"Ġcoordinates":3278,"QU":3279,"fast":3280,"press":3281,"cessed":3282,"commit":3283,">`":3284,"Ġdetails":3285,"Ġ((":3286,"Group":3287,"Ġcre":3288,"els":3289,"tick":3290,"dumps":3291,"ration":3292,"Ġassume":3293,"witch":3294,"}'":3295,"variables":3296,"ze":3297,"unique":3298,"align":3299,"ged":3300,"attribute":3301,"curity":3302,"Ġannot":3303,"Ġentries":3304,"Ġauthor":3305,"AM":3306,"Ġremoved":3307,"ving":3308,"Ġinstances":3309,"ĠNo":3310,"Argument":3311,"BU":3312,"Ġinputs":3313,"changes":3314,"Ġadditional":3315,"Session":3316,"ilder":3317,"Ġmethods":3318,"olver":3319,"cb":3320,"App":3321,"ends":3322,"Ġstorage":3323,"trace":3324,"Ġupdated":3325,"Ġ\"{":3326,"spe":3327,"register":3328,"Ġgroups":3329,"metric":3330,"prec":3331,"convert":3332,"Ġsegment":3333,"Ġ},":3334,"long":3335,"('%":3336,"****":3337,"sid":3338,"Ġmath":3339,"ES":3340,"aved":3341,"Out":3342,"Ġdimension":3343,"ĠĠĠĠĠĠĠĠĠĠĠĠĠĠĠĠĠĠĠĠĠĠĠĠĠĠĠĠĠĠĠĠ":3344,"pare":3345,"serialize":3346,"Ġplugin":3347,"Ġindent":3348,"Ġarch":3349,"ATI":3350,"'](":3351,"Ġrepo":3352,"chine":3353,"================":3354,"ersion":3355,"tokens":3356,"distance":3357,"pix":3358,"mpt":3359,"Ġsignature":3360,"document":3361,"Auth":3362,"hes":3363,"logging":3364,"Ġalways":3365,"dec":3366,"34":3367,"qa":3368,"Ġperform":3369,"Ġlanguage":3370,"clean":3371,"TH":3372,"60":3373,"Ġdown":3374,"Ġrepresenting":3375,"unicode":3376,"Ġmetric":3377,"Ġextension":3378,"()))":3379,"asic":3380,"Py":3381,"loads":3382,"ATH":3383,"ulate":3384,"('-":3385,"strict":3386,"gp":3387,"lint":3388,"environ":3389,"allow":3390,"dims":3391,"Ġunits":3392,"Ġscore":3393,"Ġbuffer":3394,"Ġfolder":3395,"parameter":3396,"remote":3397,"Ġcomb":3398,"vs":3399,"flags":3400,"Ġpredi":3401,"ru":3402,"Ġrequire":3403,"ĠUpdate":3404,"Inter":3405,"missions":3406,"bot":3407,"Ġterm":3408,"uting":3409,"Context":3410,"ĠRuntimeError":3411,"Ġinsert":3412,"hook":3413,"cos":3414,"DEFAULT":3415,"img":3416,"amily":3417,"({'":3418,"ĠDo":3419,"inte":3420,"sql":3421,"wrap":3422,".*":3423,"Ġretry":3424,"Ġclick":3425,"ERR":3426,"ĠCh":3427,"fact":3428,"Ġrequested":3429,"ĠDefaults":3430,"Ġstdout":3431,"()[":3432,"cimal":3433,"Ġcor":3434,"Ġmulti":3435,"Ġaxes":3436,"Ġstored":3437,"zero":3438,"Ġtrace":3439,"real":3440,"cursor":3441,"Ġchain":3442,"Ġstandard":3443,"Ġcharacters":3444,"chedule":3445,"utable":3446,"rence":3447,"ole":3448,"Pre":3449,"expected":3450,"ĠDE":3451,"author":3452,"plotlib":3453,"(['":3454,"quences":3455,"ĊĠĠĠĠĠĠĠĠĠĠĠĠĠĠĠĠĠĠĠĠĠĠĠĠĠĠĠĠĠĠĠĠĠĠĠĠĠ":3456,"Ġprivate":3457,"Ġ\"/":3458,"ively":3459,"Ġ})":3460,"Ġbox":3461,"blem":3462,"fill":3463,"KEY":3464,"pool":3465,"mac":3466,"bind":3467,"Ġ\"\\":3468,"cluster":3469,"Ġwrap":3470,"fetch":3471,"sqrt":3472,"Ġ_,":3473,"defin":3474,"ĠOther":3475,"ĠOr":3476,"Ġhparams":3477,"ĊĠĠĠĠĠĠĠĠĠĠĠĠĠĠĠĠĠĠĠĠĠĠĠĠĠĠĠĠĠĠĠĠĠĠĠĠĠĠ":3478,"Ġrole":3479,"Ġplace":3480,"force":3481,"Ġdistribution":3482,"ters":3483,"alpha":3484,"quires":3485,"Process":3486,"QL":3487,"Ġuntil":3488,"Ġinterval":3489,"spect":3490,"uring":3491,"period":3492,"ransport":3493,"IL":3494,"ĠArgument":3495,"Handler":3496,"Ġloc":3497,"edges":3498,"Ġht":3499,"sec":3500,"fg":3501,"Ġcommon":3502,"Ġnoqa":3503,"sep":3504,"HE":3505,"formed":3506,"null":3507,"Per":3508,"display":3509,"times":3510,"figs":3511,"(\"%":3512,"corre":3513,"merge":3514,"sm":3515,"ui":3516,"Ġsur":3517,"jobs":3518,"Ent":3519,"ilt":3520,"Ġcomplete":3521,"Size":3522,"Ġfill":3523,"events":3524,"ĠNumber":3525,"xx":3526,"Ġrepresentation":3527,"__)":3528,"dat":3529,"storage":3530,"ango":3531,"ĠIO":3532,"Gener":3533,"Ġker":3534,"atted":3535,"route":3536,"Ġexit":3537,"Ġ-=":3538,"Ġsm":3539,"je":3540,"dirname":3541,"states":3542,"Ġndarray":3543,"Ġactive":3544,"eric":3545,"Parse":3546,"sn":3547,"rtual":3548,"ĠAny":3549,"-%":3550,"Ġpair":3551,"Ġdestination":3552,"ength":3553,"Ġmeans":3554,"LOG":3555,"Ġcat":3556,"ane":3557,"API":3558,"/%":3559,"periment":3560,"weights":3561,"ertificate":3562,"dio":3563,"Ġim":3564,"fname":3565,"AS":3566,"prop":3567,"coords":3568,"Ġmost":3569,"Ġshort":3570,"sted":3571,"PC":3572,"Ġneg":3573,"github":3574,"des":3575,"Ġnamed":3576,"Ġwere":3577,"13":3578,"Input":3579,"sens":3580,"come":3581,"ĠApp":3582,"čĊĠĠĠĠĠĠĠĠĠĠĠĠĠĠĠĠĠĠĠ":3583,"Ġrecords":3584,"roller":3585,"Ġexclude":3586,"ĠDataFrame":3587,"lack":3588,"Ġzone":3589,"Ġinstall":3590,"ĠValid":3591,"ather":3592,"ĠPath":3593,"Ġgenerator":3594,"'\\":3595,"UP":3596,"Ġgenerated":3597,"Te":3598,"include":3599,"entication":3600,"clear":3601,"ĠRE":3602,"Ġsubject":3603,"Ġinternal":3604,"Ġrec":3605,"member":3606,"Ġ'*'":3607,"Ġmedi":3608,"Rec":3609,"_.":3610,"istered":3611,"Table":3612,"verbose":3613,"reshape":3614,"Base":3615,"Ġbash":3616,"18":3617,"Ġactual":3618,"Ġcharacter":3619,".)":3620,"help":3621,"Ġsetting":3622,"Ġimg":3623,"Ġcompat":3624,"Ġuri":3625,"master":3626,"Ġperiod":3627,"defaults":3628,"flag":3629,"={}":3630,"Ġselected":3631,"Ġ\",":3632,"Ġasync":3633,"Ġpool":3634,"codes":3635,"volume":3636,"Ġwrapper":3637,"Ġdirectly":3638,"ĠMake":3639,"Ġattemp":3640,"Query":3641,"loaded":3642,"Ġdefinition":3643,"amma":3644,"Ġfmt":3645,"ĠPer":3646,"modules":3647,"ues":3648,"ĠUser":3649,"FO":3650,"ams":3651,"sired":3652,"Ġensure":3653,"layers":3654,"(\"\\":3655,"Ġmodels":3656,"application":3657,"Ġids":3658,"inputs":3659,"Ġjoin":3660,"Ġart":3661,"17":3662,"bove":3663,"defined":3664,"Ġbucket":3665,"cii":3666,"ĠAl":3667,"ignore":3668,"Ġauto":3669,"otential":3670,"Image":3671,"NS":3672,"Ġway":3673,"byte":3674,"rb":3675,"Ġbranch":3676,"ĠIndex":3677,"Ġleast":3678,"role":3679,"span":3680,"fmt":3681,"Ġpairs":3682,"ND":3683,"PRO":3684,"On":3685,"CK":3686,"Date":3687,"Ġregex":3688,"Update":3689,"sen":3690,"Ġpylint":3691,"Ġsuccessful":3692,"summary":3693,"Content":3694,"Ġday":3695,"ocation":3696,"fic":3697,"yg":3698,"Ġsuffix":3699,"tion":3700,"ene":3701,"Le":3702,"Ġprobab":3703,"gb":3704,"socket":3705,"secret":3706,"Trans":3707,"phi":3708,"rl":3709,"Reg":3710,"cip":3711,"ports":3712,"ower":3713,"served":3714,"Count":3715,"kind":3716,"light":3717,"tact":3718,"He":3719,"Ġimplement":3720,"utation":3721,"fd":3722,"Ġsql":3723,"regex":3724,"Ġdisk":3725,"endpoint":3726,"Ġlists":3727,"Ġlar":3728,"WS":3729,"miss":3730,"alias":3731,"Ġ'',":3732,"Ġoptim":3733,"alk":3734,"ĠTime":3735,"Ġut":3736,"Ġ200":3737,"cording":3738,"Ġfilters":3739,"kets":3740,"cessary":3741,"Ġhtml":3742,"56":3743,"custom":3744,"Ġrender":3745,"Ġdirection":3746,"Ġoverride":3747,"Ġappend":3748,"ĠEn":3749,"install":3750,"ĠĠĠĠĠĠĠĠĠ":3751,"ï¼":3752,"ploy":3753,"counts":3754,"allback":3755,"]+":3756,"Ġfalse":3757,"argv":3758,"VAL":3759,"ĠOS":3760,"Ġkw":3761,"Ġsym":3762,"Ġbot":3763,"Ġprotocol":3764,"lookup":3765,"yntax":3766,"Ġctypes":3767,"Ġpolicy":3768,"ĠAs":3769,"ĊĠĠĠĠĠĠĠĠĠĠĠĠĠĠĠĠĠĠĠĠĠĠĠĠĠĠĠĠĠĠĠĠĠĠĠĠĠĠĠĠĠĠĠ":3770,"Valid":3771,"Ġmany":3772,"signal":3773,"Ġcalling":3774,"release":3775,"Ġcommit":3776,"ĠWhether":3777,"Ġbl":3778,"Ġgre":3779,"Ġimages":3780,"Ġrot":3781,"Ġhead":3782,"Ġtransaction":3783,"slice":3784,"symbol":3785,"Dis":3786,"Ġreverse":3787,"success":3788,"Ġlock":3789,"Ġder":3790,"Ġ$":3791,"Ġneeds":3792,"effici":3793,",)":3794,"Ġprop":3795,"ATION":3796,"expr":3797,"ĠString":3798,"osition":3799,"Ġ%(":3800,"Ġwarnings":3801,"counter":3802,"Ġupper":3803,"rain":3804,"Ġextensions":3805,"Ġyear":3806,"Ġedges":3807,"after":3808,"jango":3809,"Status":3810,"ribe":3811,"mpling":3812,"ilar":3813,"FILE":3814,"Ġanalysis":3815,"ĠCol":3816,"Ġfont":3817,"Ġfp":3818,"foo":3819,"property":3820,"}\"":3821,"Ġmu":3822,"Ġflow":3823,"ga":3824,"widget":3825,"Ġty":3826,"steps":3827,"Ġattrs":3828,"obs":3829,"language":3830,"Ġcy":3831,"Ġwidget":3832,"Ġdraw":3833,"ressed":3834,"Ġcondition":3835,"Ġtrig":3836,"mu":3837,"dic":3838,"Ġarrays":3839,"Ġalgorithm":3840,"ention":3841,"heet":3842,"ĠInvalid":3843,"Man":3844,")])":3845,"Ġvm":3846,"Ġchanged":3847,"Ġsymbol":3848,"Ġuses":3849,"win":3850,"Ġprogress":3851,"pter":3852,"Ġthose":3853,"ases":3854,"changed":3855,"tk":3856,"apply":3857,"ĠQu":3858,"Ġcalculate":3859,"Ġho":3860,"Ġdetect":3861,"Graph":3862,"logy":3863,"duce":3864,"Ġdec":3865,"ĠOnly":3866,"filepath":3867,"Ġdecorator":3868,"complete":3869,"buf":3870,"()]":3871,"ĠXML":3872,"tab":3873,"links":3874,"writ":3875,"bucket":3876,"Start":3877,"Iter":3878,"Ġ16":3879,"sorted":3880,"suffix":3881,"Ġamount":3882,"Ġlookup":3883,"okie":3884,"This":3885,"IG":3886,"Ġfname":3887,"elements":3888,"('--":3889,"sym":3890,"maining":3891,"uter":3892,"Ġ,":3893,"Ġ{},":3894,"22":3895,"Ġtrack":3896,"__.":3897,"download":3898,"Connection":3899,"Ġpandas":3900,"ense":3901,"ified":3902,"tore":3903,"Ġ'')":3904,"erature":3905,"compile":3906,"Ġ//":3907,"200":3908,"Ġfinally":3909,"ĠBy":3910,"Ġpkg":3911,"database":3912,"velo":3913,"PATH":3914,"Ġmember":3915,"Ġcommands":3916,"IM":3917,"Exec":3918,"istics":3919,"utton":3920,"Ġminimum":3921,"POST":3922,"Ġautomat":3923,"gate":3924,")*":3925,"www":3926,"lev":3927,"Ġfetch":3928,"ERROR":3929,"faces":3930,"ĠOtherwise":3931,"SION":3932,"public":3933,"imer":3934,"pipe":3935,"Ġchildren":3936,"multi":3937,"ĠRead":3938,"=_":3939,"Number":3940,"Version":3941,"contents":3942,"sole":3943,"ugins":3944,"Ġcomponents":3945,"ĠConfig":3946,"acy":3947,"Ġslice":3948,"Ġsupp":3949,"Ġconver":3950,"axes":3951,"Ġ\"_":3952,"Ġanother":3953,"assign":3954,"OP":3955,"Ġlibrary":3956,"fail":3957,"Ġscan":3958,"nn":3959,"gt":3960,"ons":3961,"ĠĠĠĠĠĠĠĠĠĠ":3962,"DS":3963,"Ġmag":3964,"ĠĊĠĠĠ":3965,"oms":3966,"For":3967,"sig":3968,"resses":3969,"Ġfuture":3970,"vide":3971,"channels":3972,"Series":3973,"Al":3974,"Ġrate":3975,"none":3976,"Ġprev":3977,"CS":3978,"ocab":3979,"Ġabove":3980,"-+-+-+-+":3981,"eval":3982,"iew":3983,"details":3984,"agent":3985,"ibility":3986,"Ġpublic":3987,"sim":3988,"freq":3989,"Ġ[(":3990,"Ġnumbers":3991,"sha":3992,"lex":3993,"tty":3994,"ifier":3995,"Ġsummary":3996,"uint":3997,"UM":3998,"urse":3999,"month":4000,"font":4001,"Ġrelation":4002,"arm":4003,"resources":4004,"'re":4005,"Ġaccording":4006,"ĠRemove":4007,"Ġsubprocess":4008,"Ġhy":4009,"Ġcandid":4010,"basename":4011,"}}":4012,"expand":4013,"Ġstates":4014,"Ġetc":4015,"generate":4016,"Ġexpi":4017,"Ġverify":4018,"çļ":4019,"Ġangle":4020,"ĠConvert":4021,"Map":4022,"Ġalias":4023,"andlers":4024,"Code":4025,"rag":4026,"IS":4027,"Ġcenter":4028,"501":4029,"]*":4030,"Ġweb":4031,"Ġdat":4032,"....":4033,"Ġkind":4034,"ypes":4035,"protocol":4036,"çļĦ":4037,"Ġtensor":4038,"cd":4039,"admin":4040,":-":4041,"SET":4042,"Ġthreshold":4043,"pkg":4044,"Ġbar":4045,")/":4046,"area":4047,"ship":4048,"Point":4049,"Ġproduct":4050,"Desc":4051,"From":4052,"Ġident":4053,"Line":4054,"RA":4055,"tool":4056,"}/":4057,"66":4058,"sigma":4059,"ĠYou":4060,"sleep":4061,"eff":4062,"Ġ\"-":4063,"Ġnecessary":4064,"Ġexecute":4065,"astype":4066,"Ġcurrently":4067,"Ġclasses":4068,"jection":4069,"('.":4070,"Ġmaster":4071,"memory":4072,"Ġdesired":4073,"Ġdimensions":4074,"ells":4075,"scan":4076,"partition":4077,"Ġreason":4078,"Ġspe":4079,"Ġsetup":4080,"Ġexceptions":4081,"ropy":4082,"icle":4083,"ling":4084,"history":4085,"Ġoperator":4086,"Ġkernel":4087,"ĠNO":4088,"lies":4089,"Ġ(%":4090,"safe":4091,"reset":4092,"Ġpacket":4093,"ĠAll":4094,"subject":4095,"As":4096,"HTTP":4097,"scriptor":4098,"abel":4099,"Ġrepository":4100,"05":4101,"ĠĠĠĠĠĠĠĠĠĠĠ":4102,"Ġstarting":4103,"Ġresources":4104,"Ġstderr":4105,"missing":4106,"gg":4107,"Ġcontrol":4108,"tz":4109,"gene":4110,"plugin":4111,"straints":4112,"AGE":4113,"spath":4114,"fun":4115,"Ġinstalled":4116,"threshold":4117,"Ġbro":4118,"čĊĠĠĠĠĠĠĠĠ":4119,"cesses":4120,"ĠYANG":4121,"Ġbind":4122,"icro":4123,"Ġasynchronous":4124,"mass":4125,"Ġ[],":4126,"Service":4127,"colors":4128,"Ċĉĉĉĉ":4129,"cipy":4130,"Ġoccur":4131,"atches":4132,"åı":4133,"oot":4134,"login":4135,"03":4136,"Ġ\"{}":4137,"olved":4138,"Ġreset":4139,"ines":4140,"ATA":4141,"ife":4142,"ĠFind":4143,"Ġencoded":4144,"ops":4145,"MS":4146,"Ġpartition":4147,"short":4148,"Ġcfg":4149,"Ġincluded":4150,"Ġusers":4151,"Do":4152,"Ġrelease":4153,"operation":4154,"ones":4155,"filters":4156,"Ġignored":4157,"ĠArguments":4158,"peration":4159,"rand":4160,"cons":4161,"']))":4162,"Ġcalls":4163,"ĠSpeci":4164,"Ġinv":4165,"pair":4166,"Ġput":4167,"segment":4168,"Ġside":4169,"\"].":4170,"nb":4171,"Ġgene":4172,"atterns":4173,"Ġtermin":4174,"sess":4175,"Ġshell":4176,"ĠTrans":4177,"ĊĠĠĠĠĠĠĠĠĠĠĠĠĠĠĠĠĠĠĠĠĠĠĠĠĠĠĠĠĠĠĠĠĠĠĠĠĠĠĠĠĠ":4178,"ancel":4179,"ric":4180,"Ġupload":4181,"ĠUni":4182,"pars":4183,"vidual":4184,"Ġbits":4185,"Ġwords":4186,"extract":4187,"fp":4188,"ogram":4189,"mediate":4190,"ĠParse":4191,"Ġorigin":4192,"note":4193,"mid":4194,"before":4195,"component":4196,"retry":4197,"ABLE":4198,"branch":4199,"Ġvalidation":4200,"category":4201,"ĠIOError":4202,"Ġsimple":4203,"ifact":4204,"Ġdetermine":4205,"Ġpick":4206,":\\":4207,"gories":4208,"PAR":4209,"Ġduring":4210,"inf":4211,"undle":4212,"23":4213,"ĠĠĠĠĠĠĠĠĠĠĠĠ":4214,"Ġduration":4215,"ridge":4216,"percent":4217,"Ġclear":4218,"Ġcategory":4219,"alculate":4220,"Tree":4221,"factory":4222,"compute":4223,")\"":4224,"hs":4225,"lots":4226,"draw":4227,"cursive":4228,"inished":4229,"Ġraised":4230,"invalid":4231,"Ġloaded":4232,"sd":4233,"enabled":4234,"arguments":4235,"Ġtuples":4236,"dify":4237,"ymbols":4238,"this":4239,"beta":4240,"cr":4241,"Ġalong":4242,"Ġwell":4243,"Ġmeasure":4244,"Str":4245,"final":4246,"clus":4247,"Ġscalar":4248,"skip":4249,"Ġ[])":4250,"Ġfast":4251,"iteritems":4252,"Record":4253,"]])":4254,"firm":4255,"Ġeffect":4256,"setdefault":4257,"--------------------------------":4258,"bed":4259,"home":4260,"iki":4261,"repr":4262,"structure":4263,"ctories":4264,"Ġbackend":4265,"__(":4266,"TML":4267,"âĶ":4268,"Filter":4269,"Ġavoid":4270,"\"]:":4271,"Ġdst":4272,"priate":4273,"Ġ),":4274,"inv":4275,"matches":4276,"čĊĠĠĠĠĠĠĠĠčĊĠĠĠĠĠĠĠ":4277,"Lay":4278,"Ġtoo":4279,"Ġap":4280,"ality":4281,"Ġdeleted":4282,"Ġsigma":4283,"Ġcounter":4284,"quival":4285,"FOR":4286,"Ġpad":4287,"lso":4288,"crypted":4289,"Ġcached":4290,"Ġbegin":4291,"XX":4292,"track":4293,"binary":4294,"drop":4295,"Resource":4296,"grade":4297,"{}'.":4298,"ks":4299,"setup":4300,"example":4301,"TIME":4302,"ĊĠĠĠĠĠĠĠĠĠĠĠĠĠĠĠĠĠĠĠĠĠĠĠĠĠĠĠĠĠĠĠĠĠĠĠĠĠĠĠĠĠĠ":4303,"ĠPre":4304,"Ġbelow":4305,"components":4306,"entries":4307,"Ġ\"--":4308,"Ġreply":4309,"umb":4310,"days":4311,"trieve":4312,"Bu":4313,"Ġsupplied":4314,"Ġmodified":4315,"NotFound":4316,"|'":4317,"Ġsens":4318,"ands":4319,"pad":4320,"ural":4321,"Ġmonth":4322,"Ġast":4323,"Ġfrequency":4324,"high":4325,"deredDict":4326,"75":4327,"ascii":4328,"indent":4329,"loss":4330,"bins":4331,"pd":4332,"%(":4333,"Ġsets":4334,"Of":4335,"Ġexpect":4336,"commands":4337,"Ġvariant":4338,"precated":4339,"gers":4340,"Ġduplic":4341,"isfile":4342,"istent":4343,"Could":4344,":])":4345,"ĠIN":4346,"cert":4347,"Ġ))":4348,"blocks":4349,"found":4350,"Ġretrieve":4351,"rep":4352,"Ġappropriate":4353,"Ġdrop":4354,"Ġmove":4355,"86":4356,"Ġneighb":4357,"condition":4358,"90":4359,"Ġagainst":4360,"ĠCommand":4361,"Obj":4362,"Default":4363,"ars":4364,"Ġautomatically":4365,"cing":4366,"Ġans":4367,"Ġenabled":4368,"Ġ[[":4369,"rer":4370,"web":4371,"Ġonce":4372,"dimension":4373,"pacity":4374,"gree":4375,"ulti":4376,"ĠAlso":4377,"Load":4378,"84":4379,"pb":4380,"frac":4381,"ours":4382,"GS":4383,"Clo":4384,")).":4385,"sin":4386,"allel":4387,"images":4388,"users":4389,"Ġspecial":4390,"ĠHe":4391,"catalog":4392,"Fe":4393,"Ġstri":4394,")'":4395,"Ġsaved":4396,"Ġexport":4397,"Ġenable":4398,"records":4399,"Ġhex":4400,"Ġns":4401,"Ġreceived":4402,"redu":4403,"scape":4404,"mplates":4405,"Option":4406,"tw":4407,"Ġnorm":4408,"layout":4409,"Ġmight":4410,"Ġcredentials":4411,"Ġfeed":4412,"reat":4413,"spaces":4414,"concat":4415,"Ġradius":4416,"neighb":4417,"imp":4418,"vl":4419,"Ġincre":4420,"ilities":4421,"ACK":4422,"Ġcolors":4423,"Ġabsolute":4424,"td":4425,"TS":4426,"ii":4427,"oriz":4428,"Ġconverted":4429,"dirs":4430,"Token":4431,"grees":4432,"Ġcut":4433,"ĊĊ":4434,"We":4435,"ping":4436,"Ġsnapshot":4437,"BUG":4438,"Ġatom":4439,"Ġcsv":4440,"Ca":4441,"Ġdot":4442,"Ġmesh":4443,"UB":4444,"single":4445,"google":4446,")}":4447,"Ġembed":4448,"ĠInput":4449,"Ġfailure":4450,"hostname":4451,"Ġrequires":4452,"running":4453,"rect":4454,"mgmt":4455,"Attribute":4456,"Ġknown":4457,"Tra":4458,"\").":4459,"rece":4460,"product":4461,"arange":4462,"MM":4463,"Ġexact":4464,"signature":4465,"Ġactions":4466,"Ġtraining":4467,"ited":4468,"Ġlet":4469,"Ġchecks":4470,"created":4471,"sidered":4472,"Ġversionadded":4473,"ough":4474,"27":4475,"Action":4476,"conv":4477,"antity":4478,"aving":4479,"Ġarr":4480,"Manager":4481,"Command":4482,"js":4483,"Ġpercent":4484,"(\\":4485,"Ġtab":4486,"atom":4487,"members":4488,"oo":4489,"ĠLog":4490,"Ġimplemented":4491,"Ġusage":4492,"OL":4493,"second":4494,"Ġmodules":4495,"Cannot":4496,"Ġlow":4497,"definition":4498,"Ġregistered":4499,"uff":4500,"ression":4501,"Ġrep":4502,"Ġfigure":4503,"Ġyet":4504,"dst":4505,"Ġformatted":4506,"uous":4507,"enum":4508,"']]":4509,"anis":4510,"Ġexecution":4511,"Ġsig":4512,"={'":4513,"rot":4514,"Ġpers":4515,"Ġconsidered":4516,"jor":4517,"mesh":4518,"lip":4519,"orary":4520,"ĠImport":4521,"dient":4522,"engine":4523,"riteria":4524,"ĠNotes":4525,"Ġseed":4526,"Ġredirect":4527,"servation":4528,"Ġprovide":4529,"Ġbuf":4530,"Ġ'__":4531,"Ġ20":4532,"verify":4533,"Warning":4534,"ĠDis":4535,"Ġrank":4536,"Source":4537,"digest":4538,"\"][\"":4539,"messages":4540,"Ġapplied":4541,"hood":4542,"Widget":4543,"ĠCan":4544,"Ġpadding":4545,"Ġscal":4546,"Ġasset":4547,"Ġarea":4548,"yaml":4549,"ĠLoad":4550,"(__":4551,"ĠPo":4552,"Ġoutputs":4553,"ada":4554,"ĠBo":4555,"havi":4556,"Optional":4557,"rr":4558,"indows":4559,"ked":4560,"ĠTe":4561,"Ġelem":4562,"Ġdump":4563,"Ġoverwrite":4564,"Ġinside":4565,"Ġsetattr":4566,"ĠLOGGER":4567,"unch":4568,"render":4569,"duration":4570,"SER":4571,"sources":4572,"ription":4573,"ĠId":4574,"sumer":4575,"View":4576,"mooth":4577,"Mo":4578,"Ġeven":4579,"Ġyaml":4580,"expression":4581,"ASE":4582,"Ġgit":4583,"Ġgot":4584,"ral":4585,"proc":4586,"seed":4587,"(',":4588,"Ġdetermin":4589,"Ġwritten":4590,"Ġleg":4591,"control":4592,"otes":4593,"(?":4594,"čĊčĊĠĠĠ":4595,"ĠEach":4596,"VE":4597,"CP":4598,".\",":4599,"95":4600,"Def":4601,"separ":4602,"Ġbounds":4603,"'|'":4604,"Ġ{})":4605,"exclude":4606,"Ġsequences":4607,"mer":4608,"Ġsteps":4609,"Ġlogin":4610,"dle":4611,"ĠRequest":4612,"Format":4613,"structor":4614,"Ġarchive":4615,"Ġnormalize":4616,"ĠDict":4617,"shift":4618,"ube":4619,"Ġdecode":4620,"=-":4621,"Ġve":4622,"dx":4623,"At":4624,"Ġpartial":4625,"Ġexplicit":4626,"osid":4627,"limiter":4628,"40":4629,"cum":4630,"ront":4631,"aut":4632,"sync":4633,"alg":4634,"Ġstrip":4635,"theta":4636,"ZE":4637,"TA":4638,"Ġsources":4639,"tensor":4640,"EM":4641,"variant":4642,"Ac":4643,"ĊĊĊĠĠĠ":4644,"emon":4645,"configuration":4646,"processing":4647,"Ġprec":4648,"')[":4649,"Ġ-----":4650,"echo":4651,"sur":4652,"inc":4653,"SA":4654,"Ġdefining":4655,"ident":4656,"lis":4657,"Ġpositive":4658,"ĠQt":4659,"writer":4660,"Ġsn":4661,"VI":4662,"Ġdid":4663,"tile":4664,"Ġproblem":4665,"ĠĊĠĠĠĠĠĠĠĠĠĠĠ":4666,"orld":4667,"provider":4668,"bounds":4669,"Link":4670,"Box":4671,"Ġcounts":4672,"ava":4673,"sem":4674,"=\"\"":4675,"Ġsmall":4676,"Ġknow":4677,"Ġwin":4678,"__.__":4679,"ĠOpen":4680,"Ġmachine":4681,"shell":4682,"xim":4683,"IC":4684,"Convert":4685,"Ġnegative":4686,"quivalent":4687,"asset":4688,"Ġattach":4689,"Ġepoch":4690,"}:":4691,"iso":4692,"256":4693,"metrics":4694,"available":4695,"driver":4696,"Spec":4697,"Ġcla":4698,"Ġmac":4699,"Stream":4700,"Ċĉĉĉĉĉ":4701,"ili":4702,"Ġpid":4703,"Ġnotification":4704,"Ġtakes":4705,"Ġrules":4706,"Ġstill":4707,"measure":4708,"LIN":4709,"ĠObject":4710,"Ġprocessed":4711,"private":4712,"UE":4713,"\\'":4714,"Ġinspect":4715,"Ġnested":4716,"generator":4717,"Ġchannels":4718,"Ġprogram":4719,"Unable":4720,"Ġprocessing":4721,"Ġagent":4722,"Function":4723,"Ġissue":4724,"Ġmid":4725,"Ġselection":4726,"origin":4727,"96":4728,"Ġnb":4729,"variance":4730,"OS":4731,"rowser":4732,"platform":4733,"Ġsl":4734,"Ġtool":4735,"backend":4736,"OK":4737,"activ":4738,"ï¼Į":4739,"ifest":4740,"ierarch":4741,"vas":4742,"expi":4743,"reader":4744,"Ġregistry":4745,"Ġds":4746,"ynamic":4747,"Ġutil":4748,"abspath":4749,"Ġmetrics":4750,"Call":4751,"resp":4752,"Ġdev":4753,"boot":4754,"unpack":4755,"Ġorg":4756,"Met":4757,"mitted":4758,"`:":4759,"ndim":4760,"Method":4761,"85":4762,"integer":4763,",'":4764,"Ġrepe":4765,"Ġ##":4766,"Ġsafe":4767,"Ġcir":4768,"Ġdescrib":4769,"sy":4770,"epoch":4771,"Ġpower":4772,"Ġ''.":4773,"hidden":4774,"35":4775,"Ġplatform":4776,"Ġtargets":4777,"ĠError":4778,"targets":4779,"pdf":4780,".',":4781,"Ġmanager":4782,"Ġtasks":4783,"ever":4784,"ygon":4785,"Ġstatement":4786,"Address":4787,"Ġrelated":4788,"strings":4789,"Ġhapp":4790,"____":4791,"=['":4792,"Ġfilepath":4793,"36":4794,"utor":4795,"ĠBuild":4796,"ender":4797,"Ġ'<":4798,"PRE":4799,"begin":4800,"Ġworks":4801,"Ġcoeffici":4802,"Ġaverage":4803,"Ġpackages":4804,"_)":4805,"Ġless":4806,"Ġ1000":4807,"Ġmapped":4808,"Block":4809,"rong":4810,"Ġå":4811,"Ġengine":4812,"ĠCont":4813,"ratio":4814,"Level":4815,"Server":4816,"progress":4817,"Ġconnected":4818,"onal":4819,"div":4820,"best":4821,"Ġmarker":4822,"asis":4823,"Ġspecification":4824,"hing":4825,"tasks":4826,"Ġconstruct":4827,"='',":4828,"Ġsimp":4829,"diag":4830,"ferred":4831,"'\"":4832,"HO":4833,"scheme":4834,"Entry":4835,"Ġ~":4836,"Ġalt":4837,"registry":4838,"auss":4839,"Ġround":4840,"rules":4841,"neg":4842,"Ġ(:":4843,"ied":4844,"ula":4845,"Ġtile":4846,"Ġmd":4847,"Ġblocks":4848,"Ġaggreg":4849,"Ġimplementation":4850,"Ġversions":4851,"Ġnone":4852,"upload":4853,"ouble":4854,"Ġprimary":4855,"Ġidentifi":4856,"TypeError":4857,"strument":4858,"irst":4859,"iterable":4860,"quare":4861,"quote":4862,"ORD":4863,"ENT":4864,"ocument":4865,"Ġlater":4866,"hy":4867,"rev":4868,"fid":4869,"require":4870,"rupt":4871,"Ġ')":4872,"done":4873,"PS":4874,"stit":4875,"pm":4876,"pan":4877,"predi":4878,"Ġmakes":4879,"uler":4880,"Implemented":4881,"illar":4882,"ĊĠĠĠĠĠĠĠĠĠĠĠĠĠĠĠĠĠĠĠĠĠĠĠĠĠĠĠĠĠĠĠĠĠĠĠĠĠĠĠĠĠĠĠĠ":4883,"lag":4884,"ĠOSError":4885,"dc":4886,"correct":4887,"System":4888,"zy":4889,"Ġcover":4890,"ä»":4891,"Ġtopic":4892,"Unknown":4893,"see":4894,"Ġworking":4895,"Ġvirtual":4896,"Ġsy":4897,"Ġmatplotlib":4898,"Ġpr":4899,"ckets":4900,"Ġpipeline":4901,"Output":4902,"lyph":4903,"Ġrespect":4904,"lineno":4905,"Ġown":4906,"Ġsat":4907,"direction":4908,"Ġ[-":4909,"['_":4910,"Ġinterpol":4911,"tack":4912,"topic":4913,"End":4914,"Ġreci":4915,"ĠReg":4916,"Ġworker":4917,"esca":4918,"ĠIter":4919,"ĠInitial":4920,"ĠBe":4921,"eries":4922,"cogn":4923,"Ġexpr":4924,"ĠStart":4925,"Ġbeta":4926,"original":4927,"Ġdataframe":4928,"Tag":4929,"pred":4930,"Ġremaining":4931,"owner":4932,"Ġinner":4933,"Ġiterator":4934,"Ġfixed":4935,"isdir":4936,"Ġbackground":4937,"usters":4938,"power":4939,"ssh":4940,"Store":4941,"ĊĠĠĠĠĠĠĠĠĠĠĠĠĠĠĠĠĠĠĠĠĠĠĠĠĠĠĠĠĠĠĠĠĠĠĠĠĠĠĠĠĠĠĠĠĠĠĠ":4942,"Ġiteration":4943,"dl":4944,"chor":4945,"Proper":4946,"oom":4947,"Ġcert":4948,"Ġbins":4949,"ĠOut":4950,"cu":4951,"Ġ\\'":4952,"Sign":4953,"Ġfiltered":4954,"static":4955,"tainer":4956,"Ġcols":4957,"estim":4958,"Ġpotential":4959,"serve":4960,"coordin":4961,"aa":4962,"keyword":4963,"Ġdig":4964,"ĠThere":4965,"Ġscheme":4966,"ĠCompute":4967,"free":4968,"Ġphase":4969,"ĠFI":4970,"epcopy":4971,"ĠSub":4972,"ĠForm":4973,"mar":4974,"enu":4975,"Mode":4976,"ĠBase":4977,"Ġprovider":4978,"]],":4979,"tables":4980,"Ġpartic":4981,"transaction":4982,"`)":4983,"ally":4984,"geo":4985,"Ġcp":4986,"Ġ[{":4987,"Ġfreq":4988,"comb":4989,"mk":4990,"lier":4991,"services":4992,"Ġbasestring":4993,"ĠGiven":4994,"Pa":4995,"ĠCreates":4996,"Ġmatched":4997,"Hel":4998,"sock":4999,"Ġcb":5000,"Ġhostname":5001,"ĠCode":5002,"INT":5003,"sessment":5004,"Ġcollections":5005,"70":5006,"Ġlate":5007,"most":5008,"outputs":5009,"ALL":5010,"dn":5011,"Ġpredict":5012,"Ġstage":5013,"Ad":5014,"Params":5015,"ips":5016,"Ġ<<":5017,"Ġspa":5018,"Ġ':":5019,"Ġindividual":5020,"cryption":5021,"ector":5022,"rpc":5023,"zen":5024,"embed":5025,"ĠNode":5026,".'.":5027,"Ġscipy":5028,"Range":5029,"Ġactiv":5030,"media":5031,"Ġcoordinate":5032,"fied":5033,"Ġsecurity":5034,"FIG":5035,"Num":5036,"packages":5037,"logical":5038,"Ġcompar":5039,"END":5040,"br":5041,"usage":5042,"Ġspan":5043,"ipv":5044,"ĊĠĠĠĠĠĠĠĠĠĠĠĠĠĠĠĠĠĠĠĠĠĠĠĠĠĠĠĠĠĠĠĠĠĠĠĠĠĠĠĠĠĠĠĠĠ":5045,"fc":5046,"family":5047,"Ġcore":5048,"pg":5049,"ssl":5050,"Ġsolution":5051,"Ġmembers":5052,"ĠNotImplemented":5053,"Ġcases":5054,"magic":5055,"Color":5056,"cla":5057,"prob":5058,"Ġsep":5059,"Ġaddr":5060,"Ġsec":5061,"worker":5062,"Row":5063,"holder":5064,"Ġener":5065,"Ġprior":5066,"oring":5067,"extension":5068,"sage":5069,"gz":5070,"Ed":5071,"Ġmodifi":5072,"Ġsimilar":5073,"Part":5074,"PTION":5075,"flush":5076,"Ġdocumentation":5077,"Ġlayout":5078,"Ġ*=":5079,"AND":5080,"('_":5081,"Job":5082,"Ġuseful":5083,"ROM":5084,"uess":5085,"Ġmass":5086,"Ġchunks":5087,")+":5088,"reen":5089,"ĠIndexError":5090,"Ġitself":5091,"duced":5092,"Ġlinks":5093,"Ġhistory":5094,"Ġreturning":5095,"tic":5096,"delay":5097,"olds":5098,"cpu":5099,"26":5100,"sto":5101,"Ġhelper":5102,"refresh":5103,"operator":5104,"wrapper":5105,"rency":5106,"Ġsurface":5107,"em":5108,"actor":5109,"ĠGenerate":5110,"edit":5111,"Ġintegr":5112,"lihood":5113,"STR":5114,")\\":5115,"otype":5116,"Ġcoords":5117,"GB":5118,"parsed":5119,"78":5120,"ĠHTML":5121,"Ġfore":5122,"tein":5123,"relation":5124,"ceed":5125,"tl":5126,"creen":5127,"security":5128,"ailf":5129,"kernel":5130,"Ġæ":5131,"Write":5132,"partial":5133,"ĠFunction":5134,"Parameter":5135,"ĠIDs":5136,"internal":5137,"Ġtables":5138,"Ġ?":5139,"ttp":5140,"alance":5141,"bos":5142,"upported":5143,"Ġforward":5144,"Ġconfigured":5145,"elem":5146,"allet":5147,"feed":5148,"Ġallows":5149,"sence":5150,"inner":5151,"flatten":5152,"loader":5153,"Ġpositions":5154,")-":5155,"Ġren":5156,"requests":5157,"struction":5158,"attach":5159,"Ġparsing":5160,"scal":5161,"raps":5162,"Ġregular":5163,")',":5164,"false":5165,"Ġauthentication":5166,"Ġps":5167,"verts":5168,"Ġoperations":5169,"(\"-":5170,"Ġnull":5171,"Ġ\\\\":5172,"Ġattempt":5173,"ARN":5174,"Ġcreating":5175,"Ġconv":5176,"Dir":5177,"Ġcatalog":5178,"ond":5179,"shut":5180,"Ġadmin":5181,"âĶĢ":5182,"LL":5183,"identity":5184,"Ġtick":5185,"Ġnormalized":5186,")**":5187,"Su":5188,"Ġconversion":5189,"ĠAc":5190,"ĠOrderedDict":5191,"Ġcurr":5192,"Ġwrapped":5193,"~~":5194,"Ġbehavi":5195,"functions":5196,",))":5197,"seg":5198,"Ġresolve":5199,"Parameters":5200,"Ġcompatible":5201,"ij":5202,"Ġaltern":5203,"Ġâ":5204,"ptr":5205,"(':":5206,"Ġobs":5207,"ĠCall":5208,"Ref":5209,"ĠDB":5210,"Ġhook":5211,"tries":5212,"refs":5213,"accept":5214,"png":5215,"tp":5216,"MENT":5217,"argin":5218,"alf":5219,"ract":5220,"selection":5221,"Ġrect":5222,"anti":5223,"Ġexperiment":5224,"pairs":5225,"ragma":5226,"wiki":5227,"prev":5228,"uses":5229,"Ġnothing":5230,"analysis":5231,"Device":5232,"reverse":5233,"Ġaround":5234,"Ġdue":5235,"Ġpretty":5236,"ĠURI":5237,"Ġcalculated":5238,"Int":5239,"ĊĊĠĠĠĠĠĠĠĠĠ":5240,"Ġeps":5241,"PA":5242,"{}\".":5243,"Ġservices":5244,"DIR":5245,"ranspose":5246,"ĊĊĊĠĠĠĠĠĠĠ":5247,"proto":5248,"apping":5249,"big":5250,"choice":5251,"notification":5252,"Ġdependencies":5253,"ĠAt":5254,"Ġsomething":5255,"crete":5256,"Qt":5257,"Ġanaly":5258,"')]":5259,"calc":5260,"Ġau":5261,"Ġdriver":5262,"lict":5263,"ount":5264,"DATA":5265,"Ġescape":5266,"assert":5267,"SIZE":5268,"slug":5269,".\\":5270,"Ġreader":5271,"voke":5272,"Ġdelay":5273,"disk":5274,"ĠImage":5275,"Ġloss":5276,"\"\\":5277,"Ġbad":5278,"ipping":5279,"Ġexternal":5280,"flux":5281,"Ġfd":5282,"ĠĠĠĠĠĠĠĠĠĠĠĠĠĠĠ":5283,"forms":5284,"fasta":5285,"equal":5286,"pose":5287,"][\"":5288,"Ġequ":5289,"Ġdiag":5290,"cm":5291,"fin":5292,"radi":5293,"cio":5294,"Ġmx":5295,"Ġparticular":5296,"cwd":5297,"failed":5298,"stract":5299,"cript":5300,"Ġsecret":5301,"94":5302,"MAT":5303,"Ġwhose":5304,"snapshot":5305,"export":5306,"bam":5307,"Ġ60":5308,"Sp":5309,"Ġcollect":5310,"hosts":5311,"Ġdeploy":5312,"question":5313,"UID":5314,"atype":5315,"Ġlinear":5316,"Find":5317,"Ġio":5318,"Ġresid":5319,"*.":5320,"ĠHow":5321,"Ġ15":5322,"ĠMax":5323,"Ġtemperature":5324,"optim":5325,"Ġprecision":5326,"Ġclosed":5327,"Ġvals":5328,"Ġpixel":5329,"1000":5330,"pture":5331,"tage":5332,"ĊĠĠĠĠĠĠĠĠĠĠĠĠĠĠĠĠĠĠĠĠĠĠĠĠĠĠĠĠĠĠĠĠĠĠĠĠĠĠĠĠĠĠĠĠĠĠ":5333,"else":5334,"archive":5335,"asarray":5336,"Ġdefine":5337,"aves":5338,"ĠHandle":5339,"break":5340,"ĠMessage":5341,"Column":5342,"Ġblob":5343,"radius":5344,"ider":5345,"mut":5346,"ĠOption":5347,"Ġtrigger":5348,"Ġtor":5349,"Ġkeywords":5350,"tour":5351,"MAX":5352,"Ġedit":5353,"COL":5354,"ongo":5355,"olders":5356,"ĠSalt":5357,"reply":5358,"Ġstrict":5359,"Ġts":5360,"orth":5361,"CM":5362,"Ġbutton":5363,"Task":5364,"ACE":5365,"Ġpur":5366,"ĠResponse":5367,"ierarchy":5368,"YY":5369,"Ġratio":5370,"pick":5371,"forward":5372,"PUT":5373,"_(":5374,"cover":5375,"connected":5376,"vlan":5377,"ĠWrite":5378,"77":5379,"iling":5380,"Ġboot":5381,"ftime":5382,"vol":5383,"wb":5384,"atory":5385,"CL":5386,"uman":5387,"ationError":5388,"Ġgreater":5389,"calcul":5390,"scores":5391,"linear":5392,"Ġresulting":5393,"Ġindexes":5394,"Ġplease":5395,"Work":5396,"\"\"\",":5397,"posure":5398,"Ġisn":5399,"seek":5400,"istic":5401,"TED":5402,"selected":5403,"Ġada":5404,"NE":5405,"attention":5406,"Ġactually":5407,"resolve":5408,"Ġreading":5409,"clusive":5410,"Build":5411,"Open":5412,"aggreg":5413,"Ġterms":5414,"Ġdays":5415,"28":5416,"button":5417,"Ġcertificate":5418,"rank":5419,"lastic":5420,"ValueError":5421,"lst":5422,"ools":5423,"reason":5424,"ĠOne":5425,"DEBUG":5426,"inish":5427,"('{":5428,"ĠNotImplementedError":5429,"If":5430,"ĠClo":5431,"configs":5432,"Ġrv":5433,"ĠCalculate":5434,"LECT":5435,"plan":5436,"Ġseparate":5437,"Ġsto":5438,"[:]":5439,"escape":5440,"Ġ\"<":5441,"cached":5442,"override":5443,"Ġ:]":5444,"terms":5445,"Ġ],":5446,"Ġmade":5447,"Ġtran":5448,"ctionaries":5449,"ĠPO":5450,"rum":5451,"Ġrepr":5452,"Ġscores":5453,"orizont":5454,"[(":5455,"Ġpermissions":5456,"\">":5457,"ĠArray":5458,"bi":5459,"Ġturn":5460,"/'":5461,"unic":5462,"rstrip":5463,"Ġdirectories":5464,"signed":5465,"Ġwriter":5466,"px":5467,"utc":5468,"prompt":5469,"ĠĠĠĠĠĠĠĠĠĠĠĠĠĠ":5470,"Ġbuilt":5471,"Ġfilenames":5472,"cov":5473,"predict":5474,"compat":5475,"ulk":5476,"suppress":5477,"Ġpack":5478,"viation":5479,"Ġcandidate":5480,"Ġpatch":5481,"Ġpermission":5482,"Change":5483,"Ġupdates":5484,"Ġidentity":5485,"Ġuid":5486,"ORT":5487,"ĠModel":5488,"Ġworkflow":5489,"Ġequivalent":5490,"]).":5491,"Ġrefresh":5492,"INFO":5493,"Label":5494,"ĠMA":5495,"Ġvertex":5496,"Ġencode":5497,"ritical":5498,"orter":5499,"Ġunknown":5500,"aw":5501,"Search":5502,"ĊĊĠĠĠĠĠĠĠĠĠĠ":5503,"Ġden":5504,"Ġuuid":5505,"ĠNe":5506,"clar":5507,"ysical":5508,"Ġinterpre":5509,"specimen":5510,"iver":5511,"Ġswitch":5512,"Ġlayers":5513,"Dyn":5514,"Ġappe":5515,"Ġspect":5516,"candid":5517,"Ġshutil":5518,"menu":5519,"HER":5520,"RED":5521,"marker":5522,"BO":5523,"lar":5524,"yncio":5525,"Ġmedia":5526,"enable":5527,"Ġowner":5528,"All":5529,"Auto":5530,"ĠFilter":5531,"Ġsubset":5532,"quiet":5533,"Ġtheta":5534,"Ġ32":5535,"åĪ":5536,"environment":5537,"amount":5538,"resid":5539,"Ġseen":5540,"wards":5541,"Ġincluding":5542,"detail":5543,"Ġfs":5544,"ĠSo":5545,"sr":5546,"iler":5547,"instances":5548,"soft":5549,"Ġ'#":5550,"nu":5551,"destination":5552,"frames":5553,"Ġmerged":5554,"band":5555,"Ġgeometry":5556,"74":5557,"PY":5558,"modified":5559,":`.":5560,"Max":5561,"editor":5562,"pus":5563,"minion":5564,"normalize":5565,"Ġ``'":5566,"blob":5567,"uble":5568,"Ġsegments":5569,"ĠDictionary":5570,"Ġproc":5571,"reduce":5572,"PER":5573,"dp":5574,"ueue":5575,"utype":5576,"lices":5577,"ĠWindows":5578,"packet":5579,"ado":5580,"priority":5581,"Ġindicating":5582,"ĠQuery":5583,"********":5584,"bus":5585,"transport":5586,"ĊĊĠĠĠĠĠĠ":5587,"tol":5588,"Ġoutfile":5589,"ĠNOTE":5590,"+'":5591,"lists":5592,"igen":5593,"Ġshared":5594,"Ġnumeric":5595,"clip":5596,"Ġhand":5597,"onical":5598,"unknown":5599,"rase":5600,"bank":5601,"Ġrecursive":5602,"sections":5603,"hi":5604,"Ġordered":5605,"Ġreads":5606,"Ġsw":5607,"Ġthree":5608,"Ġchecked":5609,"è¯":5610,"ĊĊĠĠĠĠĠĠĠĠĠĠĠĠĠĠĠĠĠĠĠĠĠĠĠ":5611,"istration":5612,"IF":5613,"Ġproto":5614,"library":5615,"push":5616,"bosity":5617,"glob":5618,"Ġmultip":5619,"ticks":5620,"ulated":5621,"ĠTra":5622,"Ġdeprecated":5623,"Ġcurve":5624,"semble":5625,"cred":5626,"tached":5627,"ouse":5628,"Ġ::":5629,"Ġobtain":5630,"urls":5631,"indexes":5632,"eq":5633,"rant":5634,"cluded":5635,"ĠAss":5636,"Logger":5637,"Tensor":5638,"repository":5639,"Ġbel":5640,"Layer":5641,"Ġnoise":5642,"extmethods":5643,"ĠUT":5644,"Ġextmethods":5645,"DynClass":5646,"ĠĠĠĠĠĠĠĠĠĠĠĠĠ":5647,"ĠImportError":5648,"Cur":5649,"Ġjobs":5650,"Ġpragma":5651,"Network":5652,"Ġflux":5653,"AME":5654,"DD":5655,"Ġretrie":5656,"Ġcomplex":5657,"orizontal":5658,"lt":5659,"Ġdefinitions":5660,"Variable":5661,"props":5662,"Ġ30":5663,"sw":5664,"Ġpriority":5665,"Ġeval":5666,"gnitude":5667,"Ġcells":5668,"Ġsync":5669,"Ġassigned":5670,"('.')":5671,"ilon":5672,"ĠMust":5673,"Ġentire":5674,"Ġtz":5675,"Page":5676,"enate":5677,"^{":5678,"anded":5679,"(\"--":5680,"azard":5681,"based":5682,"Ġmanage":5683,".\".":5684,"handlers":5685,"Ġlooking":5686,"ummy":5687,"Handle":5688,"keywords":5689,"Ġfails":5690,"emit":5691,"Length":5692,"ims":5693,"Ġdevices":5694,"PU":5695,"grad":5696,"IST":5697,"ading":5698,"cn":5699,"bad":5700,"Ġ).":5701,"pot":5702,"39":5703,"Ġcost":5704,"figure":5705,"nl":5706,"selector":5707,"Ġcross":5708,"Ġtransition":5709,"Ġcomments":5710,"strftime":5711,"rectory":5712,"constants":5713,")(":5714,"Ġvectors":5715,"Ġmount":5716,"Act":5717,"Ġannotation":5718,"rypt":5719,"Exist":5720,"which":5721,"SD":5722,"peak":5723,"Ġenergy":5724,".%":5725,"Ġadjust":5726,"arest":5727,"lished":5728,"era":5729,"Ġcalc":5730,"VERSION":5731,"roy":5732,"ĠFirst":5733,"Ġexpand":5734,"ffici":5735,"versed":5736,"Ġstatic":5737,">\"":5738,"JSON":5739,"redirect":5740,"supported":5741,"Ġ\"'":5742,"calls":5743,"trig":5744,"visible":5745,"ĠSets":5746,"icip":5747,"tar":5748,"geometry":5749,"Ġsock":5750,"ĠMo":5751,"Ġschedule":5752,"SIG":5753,"CA":5754,"getattr":5755,"Ġcourse":5756,"docker":5757,"Ġfun":5758,"gent":5759,"Ġcompare":5760,"Ġgeo":5761,"CONFIG":5762,"Ġpmag":5763,"Ġsparse":5764,"ĠInter":5765,"Ġbottom":5766,"subprocess":5767,"Ġpeer":5768,"ordered":5769,"Execution":5770,"Ġbig":5771,"pages":5772,"aussian":5773,"NG":5774,"ĠText":5775,"cheduler":5776,"Ġ'{}'":5777,");":5778,"ison":5779,"()),":5780,"Ġcast":5781,"Ġmot":5782,"cha":5783,"many":5784,"allowed":5785,"rd":5786,"\"'":5787,"reads":5788,"Ġord":5789,"/(":5790,"uation":5791,"adcast":5792,"Min":5793,"']),":5794,"Ġgu":5795,"Pri":5796,"devices":5797,"Ġunpack":5798,"atrix":5799,"Ġes":5800,"Ġgood":5801,"wn":5802,"Ġrotation":5803,"Ġfree":5804,"price":5805,"pipeline":5806,"ĠAuth":5807,"Can":5808,"Ġrev":5809,"Ġmis":5810,"pandas":5811,"pers":5812,"Ġkeyid":5813,"levels":5814,"Ġflat":5815,"([[":5816,"PIPE":5817,"Ġdictionaries":5818,"ĠNew":5819,"erred":5820,"ĠTry":5821,"\"][":5822,"ONE":5823,"ilent":5824,"park":5825,"Red":5826,"Bo":5827,"USER":5828,"Ġconstant":5829,"kedirs":5830,"Ġindicates":5831,"Ġvol":5832,"Ġpeak":5833,"Api":5834,"Ġep":5835,"nsure":5836,"plugins":5837,"findall":5838,"_%":5839,"aN":5840,"car":5841,"FIX":5842,"Ġphi":5843,"boolean":5844,"ĠOutput":5845,"FIEL":5846,"uer":5847,"Ġpixels":5848,"kit":5849,"Ġscreen":5850,"ĠClient":5851,"isinstance":5852,"Ġsampling":5853,"Ġlatest":5854,"Ġprompt":5855,"ĠShould":5856,"HEAD":5857,"itespace":5858,"Ġchoice":5859,"Ġ'':":5860,"Ġtimezone":5861,"II":5862,"lang":5863,"stage":5864,"Ġdensity":5865,"()``":5866,"################################":5867,"Ġsyn":5868,"ĠNOT":5869,"Ġreferences":5870,"Ġmut":5871,"external":5872,"week":5873,"except":5874,"Over":5875,"Ġdouble":5876,"alth":5877,"Ġcomputed":5878,"Ġlarge":5879,"derer":5880,"strap":5881,"nr":5882,"Remove":5883,"ixed":5884,"76":5885,"closed":5886,"uest":5887,"endar":5888,"Ġshift":5889,"screen":5890,"plots":5891,"flat":5892,"blems":5893,"ĠThese":5894,"versions":5895,"Ġnx":5896,"machine":5897,"06":5898,"ĠST":5899,"updated":5900,"publish":5901,"255":5902,"Ġtraceback":5903,"Ġspeed":5904,"Sequence":5905,"inger":5906,"jac":5907,"Ġframes":5908,"walk":5909,"(\"/":5910,"_:":5911,"ĠCO":5912,"runtime":5913,"credentials":5914,"ram":5915,"ired":5916,"ja":5917,"Ġglob":5918,"andling":5919,"perm":5920,"prepare":5921,"ULL":5922,"CTION":5923,"Ġwa":5924,"ĠProcess":5925,"itation":5926,"moves":5927,"FS":5928,"Ġderiv":5929,"inds":5930,"`):":5931,"21":5932,"Ġsender":5933,"Ġdescriptor":5934,"builder":5935,"ĊĠĠĠĠĠĠĠĠĠĠĠĠĠĠĠĠĠĠĠĠĠĠĠĠĠĠĠĠĠĠĠĠĠĠĠĠĠĠĠĠĠĠĠĠĠĠĠĠĠĠĠ":5936,"switch":5937,"ĠTuple":5938,"Ġdocstring":5939,"Ġfh":5940,"ish":5941,"Values":5942,"star":5943,"Ġms":5944,"Ġquote":5945,"Ġruntime":5946,"aws":5947,"Ġtar":5948,"compress":5949,"named":5950,"linalg":5951,"=='":5952,"Is":5953,"æĸ":5954,"Ġdocker":5955,"Ġinplace":5956,"Ġauthentic":5957,"simple":5958,"atial":5959,"workflow":5960,"44":5961,"WN":5962,"tod":5963,".'''":5964,"Ġ])":5965,"cap":5966,">'":5967,"XT":5968,"lying":5969,"Ġmodify":5970,"bg":5971,"encoded":5972,"scalar":5973,"wt":5974,"åĲ":5975,"':'":5976,"Ġssh":5977,"Ġconditions":5978,"DU":5979,"Ġdegrees":5980,"Ġdry":5981,"Ġradi":5982,"ĠBack":5983,"prot":5984,"Ġsentence":5985,"segments":5986,"dependent":5987,"unset":5988,"Ġflatten":5989,"Access":5990,"Ġlimits":5991,"rho":5992,"yment":5993,"Ġdelimiter":5994,"Ġrh":5995,"Ġunless":5996,"cursively":5997,"rad":5998,"Ġselector":5999,"andatory":6000,"relative":6001,"atic":6002,"ĠOver":6003,"Ġassumed":6004,"monitor":6005,"FC":6006,"future":6007,"tor":6008,"è¿":6009,"Ġurllib":6010,"Ġmime":6011,"chars":6012,"Ġdx":6013,"existing":6014,"covery":6015,"Ġpopulate":6016,"cid":6017,"osen":6018,"deg":6019,"Ġsubnet":6020,"---+":6021,"Ġface":6022,"solution":6023,"logs":6024,"lv":6025,"ĠStop":6026,"Ġvide":6027,"Ġcontroller":6028,"Ġlevels":6029,"Ġchoices":6030,"PL":6031,"Ġones":6032,"Ġpublish":6033,"CODE":6034,"æľ":6035,"Ġqual":6036,"Ġminutes":6037,"Ġcer":6038,"Ġsha":6039,"lapsed":6040,"With":6041,"disable":6042,"threads":6043,"SV":6044,"sect":6045,"Ġgate":6046,"grams":6047,"Ġrepresents":6048,"LETE":6049,"Ġthreads":6050,"omial":6051,"splitlines":6052,"cally":6053,"ĠOperation":6054,"bottom":6055,"aff":6056,"Delete":6057,"Ġband":6058,"Reference":6059,"Header":6060,"Ġrc":6061,"Ġhidden":6062,"Ġnu":6063,"ranches":6064,"Ġsubclass":6065,"ĠAWS":6066,"Names":6067,"mes":6068,"Ġresolution":6069,"ĊĠĠĠĠĠĠĠĠĠĠĠĠĊĠĠĠĠĠĠĠĠĠĠĠ":6070,"alet":6071,"ĠElement":6072,"gamma":6073,"Ġmeas":6074,"Ġrecent":6075,"Ġseg":6076,"Ġvertices":6077,"maps":6078,"Ġcloud":6079,"ĠResource":6080,"Ġimmediate":6081,"Ġtemporary":6082,"mpler":6083,"Ġwatch":6084,"Collection":6085,"SL":6086,"ini":6087,"curacy":6088,"ptime":6089,"Ġ24":6090,"css":6091,"Ġrecur":6092,"cod":6093,"ĠDesc":6094,"Ġevaluate":6095,"roid":6096,"fidence":6097,"sites":6098,"ĠTensor":6099,"schedule":6100,"roles":6101,"super":6102,"sheet":6103,"contin":6104,"88":6105,"sel":6106,"splitext":6107,"latest":6108,"Ġalignment":6109,"padding":6110,"------------":6111,"semb":6112,"Ġstarted":6113,"Ġvery":6114,"Ġev":6115,"Ġparallel":6116,"Ġadding":6117,"ird":6118,"29":6119,"Container":6120,"frequency":6121,"Ġsubscription":6122,"ORY":6123,"double":6124,"repe":6125,"Timeout":6126,"ientation":6127,"Ġxy":6128,"pending":6129,"(%":6130,"CF":6131,"liance":6132,"Results":6133,"ĠGraph":6134,"related":6135,"servations":6136,"ĠUnicode":6137,"nc":6138,"Ġbasic":6139,"Ġauthorization":6140,"ffset":6141,"evalu":6142,"virtual":6143,"Be":6144,"Ġfamily":6145,"Ġcos":6146,"Ġsuccessfully":6147,"Ġcopi":6148,"pology":6149,"qq":6150,"Const":6151,"MAP":6152,"Only":6153,"izing":6154,"rgb":6155,"ystems":6156,"digit":6157,"dependencies":6158,"Ġartifact":6159,"Port":6160,"ategy":6161,"stmt":6162,"ĠWork":6163,"fft":6164,"Ġcaller":6165,"tection":6166,"Ġrdf":6167,"decor":6168,"primary":6169,"black":6170,"cost":6171,"Gets":6172,"basic":6173,"Ġdicts":6174,"trie":6175,"energy":6176,"Up":6177,"levant":6178,"coming":6179,"DATE":6180,"complex":6181,"Ġtransport":6182,"Ġaddresses":6183,"Ġinitialize":6184,"NOT":6185,"Ġpull":6186,"teger":6187,"ĠPlease":6188,"Ġhappen":6189,"You":6190,"ale":6191,"ĠTake":6192,"Ġcreates":6193,"Ġcomma":6194,"poly":6195,"Ġconstructor":6196,"Ġsensor":6197,"Ġ19":6198,"Ġ255":6199,"Ġdifference":6200,"Ġ\")":6201,"bias":6202,"ka":6203,"mot":6204,"Ext":6205,"RR":6206,"nx":6207,"using":6208,"45":6209,"MI":6210,"Speci":6211,"rp":6212,"peer":6213,"Property":6214,"Ne":6215,"hour":6216,"}]":6217,">,":6218,"Ġlocations":6219,"distribution":6220,"Ġpatterns":6221,"']):":6222,"bre":6223,"Ġalle":6224,"inder":6225,"31":6226,"dm":6227,"router":6228,"extensions":6229,"categories":6230,"Ġlongitude":6231,"deploy":6232,"Ġear":6233,"Ġdocs":6234,"acter":6235,"CRE":6236,"average":6237,"Ġpred":6238,"ĠState":6239,"Ġdecimal":6240,"Ġfraction":6241,"generated":6242,"Ġ(-":6243,"Ġpress":6244,"click":6245,"makedirs":6246,"ĠAd":6247,"Ġhosts":6248,"urations":6249,"Ġaz":6250,"duplic":6251,"lour":6252,"08":6253,"Ġcontact":6254,"ĠExec":6255,"Ġchecking":6256,"umed":6257,"sizes":6258,"Ġwx":6259,"chr":6260,"Ġlineno":6261,"phase":6262,"gl":6263,"recv":6264,"!\")":6265,"([\"":6266,"ni":6267,"Ġoverlap":6268,"ĠSeries":6269,"ĊĠĠĠĠĠĠĠĠĠĠĠĠĠĠĠĠĠĠĠĠĠĠĠĠĠĠĠĠĠĠĠĠĠĠĠĠĠĠĠĠĠĠĠĠĠĠĠĠĠ":6270,"Ġprobability":6271,"AF":6272,"Ġexecuted":6273,"ARNING":6274,"('{}":6275,"Ġprocesses":6276,"vocab":6277,"pab":6278,"OF":6279,"ĠCON":6280,"Ġiterations":6281,"ropo":6282,"Ġraises":6283,"timedelta":6284,"REQU":6285,"Ġlogs":6286,"tle":6287,"ĠMethod":6288,"prog":6289,"Ġspecifying":6290,"Match":6291,"joint":6292,"uch":6293,"ĠVM":6294,"New":6295,"%%":6296,"syn":6297,"circ":6298,"Ġanything":6299,"specific":6300,"Ġconstraints":6301,"Ġvs":6302,"'},":6303,"weet":6304,"Ġ50":6305,"major":6306,"Metadata":6307,"deepcopy":6308,"chrom":6309,"Ġcountry":6310,"Ġsigned":6311,"CESS":6312,"alette":6313,"ior":6314,"inary":6315,"Ġqueryset":6316,"program":6317,"Ġextracted":6318,"Ġgive":6319,"Thread":6320,"king":6321,"HERE":6322,"Ġ(``":6323,"Ġeverything":6324,"Ġbuilder":6325,"Ġeditor":6326,"diffe":6327,"Ge":6328,"Ġcard":6329,"gether":6330,"arc":6331,"chan":6332,"erical":6333,"Ġhard":6334,"ATOR":6335,"Ali":6336,"Ġok":6337,"comments":6338,"Ġwhole":6339,"coordinates":6340,"leaf":6341,"--+":6342,"decimal":6343,"Ġgamma":6344,"plus":6345,"Ġlatitude":6346,"anization":6347,"ĠTable":6348,"Ġcreation":6349,"-+-+-+-+-+-+-+-+":6350,"ully":6351,"Ġdepending":6352,"Ġchrom":6353,"Ġvocab":6354,"ĠSQL":6355,"bb":6356,"Ġintegers":6357,"Ġprojection":6358,"mis":6359,"AA":6360,"Ġteam":6361,"Configuration":6362,"gateway":6363,"Pol":6364,"sparse":6365,"locations":6366,"Ġboundary":6367,"ital":6368,"Ġstarts":6369,"Ġshut":6370,"Ġprevent":6371,"Mem":6372,"Ġlang":6373,"ĠExtract":6374,"Ġbus":6375,"Ġrho":6376,"ĠFROM":6377,"imit":6378,"Ġcodes":6379,"Ġcookie":6380,"Ġ'.'":6381,"ned":6382,"fixed":6383,"9999":6384,"âĶĢâĶĢ":6385,"Ġreduce":6386,"wraps":6387,"Ġri":6388,"need":6389,"ĠGroup":6390,"okies":6391,"dep":6392,"Ġcompleted":6393,"Ġrelationship":6394,"MIN":6395,"Generate":6396,"](":6397,"ail":6398,"rences":6399,"Ġperm":6400,"Dataset":6401,"ĠAdditional":6402,"æķ":6403,"Ġhit":6404,"Ġargparse":6405,"cycle":6406,"rv":6407,"Ġsv":6408,"ĊĠĠĠĠĠĠĠĠĠĠĠĠĠĠĠĠĠĠĠĠĠĠĠĠĠĠĠĠĠĠĠĠĠĠĠĠĠĠĠĠĠĠĠĠĠĠĠĠĠĠ":6409,"Back":6410,"Ġconcat":6411,"Ġquant":6412,"Ġboto":6413,"Ġconnections":6414,"Ġstatistics":6415,"Ġprepare":6416,"Ġ11":6417,"ART":6418,"Ġincludes":6419,"gap":6420,"{})":6421,"_'":6422,"Ġxrange":6423,"aster":6424,"tep":6425,"Exit":6426,"ised":6427,"ĠDelete":6428,"čĊĠĠĠĠĠĠĠĠĠĠĠĠĠĠĠĠĠĠĠĠĠĠĠ":6429,"ĠOR":6430,"Ġnever":6431,"Ax":6432,"oted":6433,"manage":6434,"cles":6435,"LOGGER":6436,"multip":6437,"ĠUsed":6438,"Uni":6439,"EST":6440,"Ġseparator":6441,"Ġbehavior":6442,"icon":6443,"Ġwrong":6444,"'ll":6445,"ĠDef":6446,"moved":6447,"legend":6448,"ĠSend":6449,"Order":6450,"chat":6451,"CI":6452,"ĊĠĠ":6453,"Ġrespon":6454,"Ġsymbols":6455,"redis":6456,")``":6457,",,":6458,"Func":6459,"corr":6460,"Ġ'/'":6461,"Ġduplicate":6462,"reci":6463,"enter":6464,"ĠResult":6465,"Target":6466,"adjust":6467,"ĠRed":6468,"Ġpages":6469,",),":6470,"Ġasyncio":6471,"LS":6472,"('<":6473,"Ġsupports":6474,"Ġaudio":6475,"Ġ(`":6476,"game":6477,"Ġcred":6478,"validation":6479,"'``":6480,"transpose":6481,"allable":6482,"lec":6483,"Ġsol":6484,"views":6485,"ike":6486,"Ġdigest":6487,"Ġcalculation":6488,"Ġexplicitly":6489,"descriptor":6490,"pointer":6491,"attice":6492,"Module":6493,"Ġperformed":6494,"algorithm":6495,"oked":6496,"Ġ\"\")":6497,"Formatter":6498,"speed":6499,"Options":6500,"Ġeas":6501,"PT":6502,"ĠGe":6503,")],":6504,"Ġdependency":6505,"atoms":6506,"Ġclip":6507,"course":6508,"Ġprice":6509,"Ph":6510,"CHE":6511,"adapter":6512,"Ġfinished":6513,"controller":6514,"Ġbackup":6515,"Tuple":6516,"mc":6517,"79":6518,"limits":6519,"Ġsimply":6520,"callable":6521,"Ġenough":6522,"Ġrequirements":6523,"imple":6524,"rou":6525,"ffic":6526,"Child":6527,"umbna":6528,"Ġ=>":6529,"Ġintervals":6530,"angles":6531,"Ġlonger":6532,"video":6533,":,":6534,"Ġdd":6535,"Ġmenu":6536,"Ġdegree":6537,"ĠUnion":6538,"Keys":6539,"cnt":6540,"vered":6541,"AG":6542,"atives":6543,"previous":6544,"Ġenviron":6545,"osite":6546,"Ġminion":6547,"crement":6548,"Meta":6549,"Ġvideo":6550,"enari":6551,"Ġcycle":6552,"Ġmandatory":6553,"dictionary":6554,"vertices":6555,"alignment":6556,"alan":6557,"Initial":6558,"Ġcause":6559,"anit":6560,"Ġruns":6561,"Ġcontract":6562,"Ġbetter":6563,"effs":6564,"FORMAT":6565,"Ġtaken":6566,"Description":6567,"çĶ":6568,"Ġbasis":6569,"FLA":6570,"Ġrestart":6571,"kip":6572,"chunks":6573,"ĠCurrent":6574,"white":6575,"Serial":6576,"Ġserialized":6577,"cel":6578,"Schema":6579,"Ġconsider":6580,"(('":6581,"Ġchecksum":6582,"rive":6583,"Ġ\"\",":6584,"ĠEvent":6585,"statement":6586,"prior":6587,"Python":6588,")')":6589,"Ġspecifies":6590,"Ġlogical":6591,"ĠDEFAULT":6592,"cognized":6593,"(\"{":6594,"outine":6595,"Ġplan":6596,"Dist":6597,"FT":6598,"vance":6599,"Ġslot":6600,"scripts":6601,"cookie":6602,"Ġgets":6603,"Ġparents":6604,">\\":6605,"Ġplay":6606,"Ġsmooth":6607,"Ġshare":6608,"vor":6609,"Location":6610,"ranges":6611,"Ġdatasets":6612,"SK":6613,"cross":6614,"Cache":6615,"mv":6616,"CAL":6617,"attemp":6618,"Com":6619,"Ġpresence":6620,"Vector":6621,"luster":6622,"Ġconsole":6623,":.":6624,"ali":6625,"ĠLe":6626,"Ġresponses":6627,"processor":6628,"65":6629,"Ġresolved":6630,"agraph":6631,"Document":6632,"Operation":6633,"pet":6634,"ĠPrint":6635,"permission":6636,"Ġapproxim":6637,"setting":6638,"Ġgenes":6639,"urther":6640,"EC":6641,"Pl":6642,"ãĢ":6643,"Ġplugins":6644,"Ġgoogle":6645,"annotation":6646,"ĠNetwork":6647,"mx":6648,"tun":6649,"zon":6650,"Ġactor":6651,"Ġblank":6652,"lations":6653,"Ġsyntax":6654,"coe":6655,"Send":6656,"yes":6657,"getter":6658,"Ġvec":6659,"tyle":6660,"Ġconsist":6661,"ĠNow":6662,"DR":6663,"Missing":6664,"mq":6665,"etc":6666,"Ġlig":6667,"LINE":6668,"ĠEnsure":6669,"Ġtogether":6670,"ĠWill":6671,"fficient":6672,"\"%":6673,"riend":6674,"outfile":6675,"vectors":6676,"SU":6677,"ti":6678,"watch":6679,"ĠGenerated":6680,"AUT":6681,"Ġpie":6682,":],":6683,"]}":6684,"pat":6685,"MODE":6686,"Ġanswer":6687,"Ġvalidator":6688,"Ġspaces":6689,"rozen":6690,"ĠField":6691,"Ġpointer":6692,"Ġfactory":6693,"09":6694,"micro":6695,"Ġlst":6696,"Ġrather":6697,"Ġ------":6698,"Ġcc":6699,"Ġexamples":6700,"maximum":6701,"locity":6702,"patterns":6703,"Ġdjango":6704,"minimum":6705,"positions":6706,"Ġcertain":6707,"ante":6708,"servers":6709,"avg":6710,"detect":6711,"Ġdates":6712,"ĠMulti":6713,"Ġtail":6714,"amera":6715,"SM":6716,"Ġcoefficients":6717,"oauth":6718,"Ġpoly":6719,"Ġcmap":6720,"Union":6721,"Cloud":6722,"ached":6723,"country":6724,"ĊĠĠĠĠĠĠĠĠĊĠĠĠ":6725,"><":6726,"Print":6727,"wcs":6728,"licies":6729,"ables":6730,"Host":6731,"Ġ:,":6732,"posed":6733,"ĠGET":6734,"trip":6735,"ĠSome":6736,"ildcard":6737,"Ġexecutable":6738,"Compute":6739,"Feature":6740,"standard":6741,"Ġpending":6742,"Ġreplaced":6743,"Ġstmt":6744,"ĠPOST":6745,"ropout":6746,"Ġ({":6747,"Ġgradient":6748,"YANG":6749,"Ġsid":6750,"Ġpush":6751,"curve":6752,"Ġ14":6753,"))]":6754,"Ġestimate":6755,"Ġmagic":6756,"OUT":6757,"ibration":6758,"Ġlegend":6759,"Ids":6760,"ags":6761,"tn":6762,"ĠHttp":6763,"Ġtax":6764,"Ġrevision":6765,"entities":6766,"anism":6767,"sequences":6768,"sertion":6769,"Channel":6770,"neighbors":6771,"zz":6772,"}/{":6773,"blue":6774,"Ġannotations":6775,"utool":6776,"ngine":6777,"Ġencrypted":6778,"And":6779,"pdb":6780,"Ġabort":6781,"Multi":6782,"qs":6783,"Ġred":6784,"executable":6785,"Ut":6786,"ov":6787,"FFFF":6788,"Ġbeginning":6789,"Ġstride":6790,"thresh":6791,"absolute":6792,"Ġdep":6793,"()}":6794,"dates":6795,"ĠAdds":6796,"ĠIPv":6797,"Ġsections":6798,"ensure":6799,"Ġreceive":6800,"cutoff":6801,"Ġprediction":6802,"Ass":6803,"develo":6804,"Ġdesign":6805,"ĠDate":6806,"Struct":6807,"Ġke":6808,"scribe":6809,"nsupported":6810,"Connect":6811,"rouped":6812,"ctools":6813,"Ġ{}).":6814,"Ġfoo":6815,"\",\"":6816,"Ġaccepted":6817,"ĠSp":6818,"plain":6819,"azure":6820,"Ġmaps":6821,"rees":6822,"Ġoutside":6823,"listdir":6824,"Ġtxt":6825,"Ġformats":6826,"Ġinitialized":6827,"Ġvars":6828,"uggest":6829,"Pool":6830,"herit":6831,"templates":6832,"vertex":6833,"lid":6834,"Ġwarn":6835,"Ġready":6836,"Ġslug":6837,"Pos":6838,"ĠSave":6839,"38":6840,"Make":6841,"cells":6842,"Ġmp":6843,"Ġ|=":6844,"Ġtranslation":6845,"Core":6846,"ee":6847,"how":6848,"ĠSE":6849,"formats":6850,"mpls":6851,"Ġhour":6852,"ints":6853,"ĠServer":6854,"authentic":6855,"wave":6856,"Ġur":6857,"Ġetree":6858,"Ġgeneral":6859,"Ver":6860,"ipe":6861,"Ġbundle":6862,"SELECT":6863,"contract":6864,"projects":6865,"backup":6866,"('[":6867,"ExecutionError":6868,":\"":6869,"Ġobjective":6870,"Ġacross":6871,"================================":6872,"shared":6873,"Ġvisual":6874,"Ġest":6875,"fies":6876,"atting":6877,"Ġtimedelta":6878,"Ġdoct":6879,"Ġexactly":6880,"Ġsynchronous":6881,"DA":6882,"phab":6883,"Ġformatter":6884,"Ġer":6885,"bbox":6886,"activity":6887,"large":6888,"XML":6889,"parsers":6890,"FIELD":6891,"Ġconstraint":6892,"Ġsites":6893,"Ġonto":6894,"Ġidentify":6895,"ĠMan":6896,"locals":6897,"Bad":6898,"ulative":6899,"Ġunable":6900,"Ġhistogram":6901,"Ġtrunc":6902,"ev":6903,"Ġpt":6904,"Ġthrow":6905,"ensors":6906,"Helper":6907,"ench":6908,"Ġmig":6909,"Ġsever":6910,")\",":6911,"bra":6912,"dimensions":6913,"ĊĠĠĠĠĠĠĠĠĠĠĠĠĠĠĠĠĠĠĠĠĠĠĠĠĠĠĠĠĠĠĠĠĠĠĠĠĠĠĠĠĠĠĠĠĠĠĠĠĠĠĠĠĠĠĠĠĠĠĠĠĠĠĠĠĠĠĠĠĠĠĠĠ":6914,"sender":6915,"Ġss":6916,"Ġinc":6917,"Ġ'+":6918,"Template":6919,"xs":6920,"Ġfg":6921,"Ġbbox":6922,"collect":6923,"imal":6924,"lengths":6925,"AML":6926,"Ġcriteria":6927,"Ġhandlers":6928,"license":6929,"symbols":6930,"ĠService":6931,"Ġcandidates":6932,"conver":6933,"Ġhandling":6934,"genes":6935,"ceeded":6936,"pient":6937,"Dec":6938,"Ġam":6939,"rices":6940,"Ġpickle":6941,"ssib":6942,"Ġdirs":6943,"appro":6944,"Ġentities":6945,"gorical":6946,"Enabled":6947,"expect":6948,"=\"\",":6949,"ability":6950,"Ġdisabled":6951,"Ġtransfer":6952,"amb":6953,"readline":6954,"58":6955,"ĠKeyword":6956,"COM":6957,"åĽ":6958,"requencies":6959,"concatenate":6960,"ilio":6961,"deleted":6962,"ollow":6963,"mav":6964,"contact":6965,"chemy":6966,"outer":6967,"SCRI":6968,"ubclass":6969,"versal":6970,"=',":6971,"Ab":6972,"Rule":6973,"fw":6974,"hest":6975,"ĠDO":6976,"Ġrout":6977,"effect":6978,"Ġ64":6979,"ĠAND":6980,"Ġdecoded":6981,"Types":6982,"gu":6983,"37":6984,"Ġsizes":6985,"tran":6986,"intervals":6987,"phabet":6988,"exe":6989,"Ġpassing":6990,"callpoint":6991,"Reader":6992,"wap":6993,"sla":6994,"Ġtests":6995,"tau":6996,"issue":6997,"()`":6998,"console":6999,"Ġmonitor":7000,"æĪ":7001,"ĠPlot":7002,"Ġtrip":7003,"Ġwave":7004,"objective":7005,"ĠGets":7006,"pixel":7007,"Ġderived":7008,"Ġredis":7009,"analy":7010,"Ġbias":7011,"./":7012,"Ġeigen":7013,"Ġloader":7014,"ĠSim":7015,"ĠPass":7016,"Creates":7017,"cancel":7018,"Ġlisten":7019,"Ġestimated":7020,"sol":7021,"background":7022,"bet":7023,"velength":7024,"Ġranges":7025,"Ġpreviously":7026,"Ġcwd":7027,"esian":7028,"formatter":7029,"Ġregions":7030,"ylabel":7031,"rename":7032,"hip":7033,"ARY":7034,"Ġmiddle":7035,"OB":7036,"âĢ":7037,"duction":7038,"xlabel":7039,"yy":7040,"ipher":7041,"some":7042,"RC":7043,"],[":7044,"pn":7045,"vcf":7046,"Ġassignment":7047,"Ġssl":7048,"Policy":7049,"Ġweek":7050,"itter":7051,"conj":7052,"isters":7053,"tuples":7054,"Ġguess":7055,"ĠGo":7056,"parents":7057,"green":7058,"Ġplots":7059,"ingerprint":7060,"Ġverb":7061,"]=":7062,"processed":7063,"ĠRetrieve":7064,"voice":7065,"Url":7066,"]-":7067,"Ġfully":7068,"Var":7069,"Ġvariance":7070,"Ġcategories":7071,"GR":7072,"Ġrestrict":7073,"Temp":7074,"æķ°":7075,"Import":7076,"URI":7077,"ffff":7078,"ĠMark":7079,"curr":7080,"trigger":7081,"adr":7082,"enc":7083,"Ġaux":7084,"fication":7085,"Ġsubstit":7086,"subset":7087,"timer":7088,"stall":7089,"ĠSearch":7090,"Ġchat":7091,"Fail":7092,"Sec":7093,"Ġsla":7094,"Ġtol":7095,"lify":7096,"('/')":7097,"HEADER":7098,"GI":7099,"iving":7100,"LED":7101,"Test":7102,"Ġhome":7103,"kg":7104,"constraints":7105,"construct":7106,"ECT":7107,"lu":7108,"EV":7109,"jid":7110,"Ġage":7111,"dicts":7112,"ĠInstance":7113,"Control":7114,"Ġseparated":7115,"Grid":7116,"Pass":7117,"[::-":7118,"Sets":7119,"Please":7120,"Ġadds":7121,"Ġqueries":7122,"Ġconstants":7123,"Ġdetected":7124,"rypto":7125,"Ġutool":7126,"nested":7127,"RES":7128,"stdin":7129,"ĠVer":7130,"Ġ25":7131,"ĊĠĠĠĠĠĠĠĠĠĠĠĠĠĠĠĠĠĠĠĠĠĠĠĠĠĠĠĠĠĠĠĠĠĠĠĠĠĠĠĠĠĠĠĠĠĠĠĠĠĠĠĠ":7132,"Button":7133,"ĠISO":7134,"Ġ/=":7135,"Ġclone":7136,"Char":7137,"\":\"":7138,"READ":7139,"multiple":7140,"constant":7141,"Ġstud":7142,"Ġoptionally":7143,"Ġimmediately":7144,"Ġprops":7145,"Ġhyper":7146,":'":7147,"Ġinverse":7148,"connections":7149,"choices":7150,"Ter":7151,"iles":7152,"noise":7153,"Ġwriting":7154,"``)":7155,"Ġcombined":7156,"Ġfallback":7157,"phrase":7158,"umbnail":7159,"dispatch":7160,"acc":7161,"SQL":7162,"SN":7163,"å¤":7164,"Ġrelevant":7165,"dian":7166,"Ġarbit":7167,"Ġprobably":7168,"Ġappear":7169,"Ġnan":7170,"quick":7171,"Ġcontained":7172,"ĠChecks":7173,"ĠSign":7174,"general":7175,"integr":7176,"Ġvisible":7177,"mega":7178,"Ġ`~":7179,"Ġasynchronously":7180,"Ġconsumer":7181,"Ġrouting":7182,"annotations":7183,"canvas":7184,"experiment":7185,"bundle":7186,"erial":7187,"submit":7188,"Ġbuff":7189,"LOCK":7190,"VALID":7191,"Cons":7192,"warnings":7193,"........":7194,"href":7195,"geom":7196,"Ġtemplates":7197,"subnet":7198,"likelihood":7199,"Ġunderlying":7200,"ĠFIX":7201,"Queue":7202,"ios":7203,"Ġchosen":7204,"Ġfragment":7205,"Role":7206,"fr":7207,").__":7208,"Cell":7209,"unity":7210,"Ġet":7211,"Ġindicate":7212,"visit":7213,"!!":7214,"Med":7215,"Ġamp":7216,"fire":7217,"Ġhref":7218,"inx":7219,"Ġlogic":7220,"Ġconfigure":7221,"Ġsending":7222,"Ġ*,":7223,"Ġattached":7224,"Bytes":7225,"ĠMaximum":7226,"Any":7227,"Ġretrieved":7228,"Ġbra":7229,"ĠSequence":7230,"iterator":7231,"audio":7232,"Ġterminal":7233,"mazon":7234,"imuth":7235,"ĠMin":7236,"arrays":7237,"getLogger":7238,"ĠEnt":7239,"ventory":7240,"fastq":7241,"itable":7242,"')):":7243,"Window":7244,"Ġcr":7245,"vidence":7246,",\"":7247,"same":7248,"ĠClass":7249,"ĠInitialize":7250,"Ġroles":7251,"Ġembedding":7252,"INTER":7253,"Extract":7254,"llo":7255,"Ġaffect":7256,"!')":7257,"mime":7258,"Ġwhite":7259,"more":7260,"Profile":7261,"completion":7262,"GP":7263,"orization":7264,"Ġpan":7265,"tolist":7266,"Ġbecome":7267,"dataframe":7268,"sentence":7269,"Ġdigits":7270,"Ġhuman":7271,"sequ":7272,"(\"{}":7273,"Ġobserved":7274,"Ġinstanti":7275,"ĠBoolean":7276,"So":7277,"VM":7278,"Ġneighbors":7279,"Ġsuc":7280,"Ġcomparison":7281,"reating":7282,"Ġcv":7283,"illi":7284,"Ġstatements":7285,"acl":7286,"Ġborder":7287,"numbers":7288,"ĠCloud":7289,"åħ":7290,"bf":7291,"LOW":7292,"failure":7293,"oa":7294,"ĠTest":7295,"Ġloading":7296,"00000000":7297,"NotFoundError":7298,"Width":7299,"ational":7300,"proj":7301,"Args":7302,"Ġfloats":7303,"ĠAR":7304,"mediator":7305,"Ġcompatibility":7306,"lated":7307,"Ġlocale":7308,"Ġshard":7309,"Ġgrad":7310,"ides":7311,"mts":7312,"lags":7313,"quee":7314,"ĠNaN":7315,"Ġfurther":7316,"ighest":7317,"HA":7318,"incip":7319,"Ġextended":7320,"riptor":7321,"hard":7322,"ba":7323,"Ġcompression":7324,"Ġdownloaded":7325,"dom":7326,"ysql":7327,"_[":7328,"ĠFe":7329,"Ġplane":7330,"89":7331,"assessment":7332,"clone":7333,"Ġencoder":7334,"criteria":7335,"Ġcompletion":7336,"ony":7337,"ĠCommandExecutionError":7338,"claration":7339,"07":7340,"sat":7341,"irt":7342,"aign":7343,"Position":7344,"dig":7345,"Ġbook":7346,"composition":7347,"fully":7348,"ĠContent":7349,"world":7350,"training":7351,"ĠAllow":7352,"surface":7353,"may":7354,"Ġmanifest":7355,"uffle":7356,"Directory":7357,"hit":7358,"Ġproblems":7359,"ĠFormat":7360,"ĠSup":7361,"Ġurls":7362,"Ġserialize":7363,"Ġdetermined":7364,"Oper":7365,"}},":7366,"Ġquestion":7367,"Ġ'\"":7368,"ĠNAME":7369,"det":7370,"roke":7371,"team":7372,"ĠWHERE":7373,"ĠDetermine":7374,"AST":7375,"Local":7376,"revision":7377,"Ġmoment":7378,"({\"":7379,"sertionError":7380,"eral":7381,"alive":7382,"Ġdaemon":7383,"Ġpip":7384,"permissions":7385,"Ġproperly":7386,"legal":7387,"ĠConnection":7388,"Iteration":7389,"Ġmeasurement":7390,"hand":7391,"$',":7392,"ĠTask":7393,"vention":7394,"Ġnotebook":7395,"Ġbytearray":7396,"UTP":7397,"alculates":7398,",-":7399,"CB":7400,"union":7401,"äº":7402,"Ġrecomm":7403,"Ġsleep":7404,"Ġarc":7405,"aging":7406,"Ġincrement":7407,"Ġimported":7408,"Ġcorrelation":7409,"Ġadapter":7410,"Ġports":7411,"flo":7412,"pur":7413,"('#":7414,"ĠDec":7415,"addresses":7416,"Ġroll":7417,"ĠBlock":7418,"VALUE":7419,"retcode":7420,":\",":7421,"Ġdialog":7422,"Ġwaiting":7423,"ace":7424,"fh":7425,"rdf":7426,"Ġmar":7427,"windows":7428,"ĠMag":7429,"Inv":7430,"compliance":7431,"UST":7432,"vrf":7433,":',":7434,"shard":7435,"ynomial":7436,"Ġissubclass":7437,"Ġcum":7438,"enario":7439,"ific":7440,"Ġfront":7441,"``:":7442,"TYPES":7443,"inations":7444,"Ġfact":7445,"CLA":7446,"()).":7447,"Storage":7448,"Ġlocals":7449,"neighbor":7450,"HT":7451,"Ġvertical":7452,"CR":7453,"eta":7454,"Ġbug":7455,"Ġthings":7456,"ĠNull":7457,")`":7458,"Ġtb":7459,"Ġactivity":7460,"contains":7461,"Ġecho":7462,"Ġconflict":7463,"Ġmuch":7464,"asa":7465,"Ġalternative":7466,"lstrip":7467,"ĠSource":7468,"ĠReferences":7469,"iteral":7470,"æĹ":7471,"Ġdecorated":7472,"UTPUT":7473,"))))":7474,"ĠEnd":7475,"subscription":7476,"issues":7477,"ttributes":7478,"Ġreplacement":7479,"installed":7480,"Ġpredicate":7481,"Ġbg":7482,"Ġdispatch":7483,"errno":7484,"sses":7485,"Ġoverrid":7486,"Ġtyping":7487,"'d":7488,"]'":7489,"Ġreversed":7490,"...,":7491,"Ġpdf":7492,"Ġblack":7493,"spy":7494,"TEXT":7495,"509":7496,"Ġ'[":7497,"kwds":7498,"Ġls":7499,"Ġcorrectly":7500,"Mark":7501,"WORD":7502,"CC":7503,"MB":7504,"cmap":7505,"poll":7506,"Ġtrim":7507,"Plot":7508,"intersection":7509,"Use":7510,"Ġgeneric":7511,"ĠFIXME":7512,"Ġtoler":7513,"Ġobservation":7514,"Ġscaling":7515,"Ġzer":7516,"inja":7517,"encoder":7518,"(\"'":7519,"hooks":7520,"expanduser":7521,"taint":7522,"__))":7523,"ĊĠĠĠĠĠĠĠĠĠĠĠĠĊĠĠĠĠĠĠĠ":7524,"fits":7525,"precision":7526,"lecule":7527,"SY":7528,"heel":7529,"Ġhours":7530,"usr":7531,"Proxy":7532,":\")":7533,"nm":7534,"pillar":7535,"Ġwalk":7536,"checks":7537,"Ġgoing":7538,"Ġoffsets":7539,"hdr":7540,"Ġable":7541,"ĠOPTION":7542,"Ġpopulation":7543,"sensitive":7544,"Mapping":7545,"Rel":7546,"Ġhalf":7547,"lope":7548,"raft":7549,"requirements":7550,"JECT":7551,"Ġinstrument":7552,"([(":7553,"datasets":7554,"IRED":7555,"shutit":7556,"Ġevaluation":7557,"wall":7558,"notify":7559,"STAT":7560,"Ġpressure":7561,"WARNING":7562,"vided":7563,"001":7564,"modifi":7565,"Ġrouter":7566,"Ġends":7567,"ponent":7568,"ĠCa":7569,"Ġcatch":7570,"ĠDon":7571,"certificate":7572,"ĠToken":7573,"Ġnative":7574,"Ġlengths":7575,"Ġgenome":7576,"written":7577,"ĠIs":7578,"Ġinterest":7579,"browser":7580,"Ġpat":7581,"critical":7582,"Ġlarger":7583,"Download":7584,"Ġfw":7585,"STATE":7586,"finite":7587,"Flow":7588,"Sum":7589,"deps":7590,"Ġcovariance":7591,"cv":7592,"slot":7593,"Ġtesting":7594,"species":7595,"Agent":7596,"Ġklass":7597,"regions":7598,"Ġdims":7599,"ĠNormal":7600,"Ġtwilio":7601,"Ġdocuments":7602,"irtual":7603,"wx":7604,"erce":7605,"degree":7606,">`_":7607,"Wrapper":7608,"[_":7609,"asing":7610,"\"}":7611,"Style":7612,"candidate":7613,"ãĢĤ":7614,"Pub":7615,"PORT":7616,"Ġextend":7617,"Ġgame":7618,"Ġmagnitude":7619,"codeError":7620,"çĶ¨":7621,"eration":7622,"Ġfall":7623,"ravel":7624,"Ġhigher":7625,"Ġ``(":7626,"Ġpredictions":7627,"Ġsmaller":7628,"ĠDescription":7629,"Ġir":7630,"urity":7631,"ledge":7632,"ĠLine":7633,"Ġspecies":7634,"trieves":7635,"extent":7636,"striction":7637,"hat":7638,"Ġthing":7639,"built":7640,"Ġneighbor":7641,"udo":7642,"Ġrr":7643,"Ġinline":7644,"coef":7645,"clusters":7646,"Ġinterpolation":7647,"URE":7648,"balance":7649,"lica":7650,"Ġcompress":7651,"metry":7652,"cular":7653,"supports":7654,"48":7655,"UI":7656,"ĠCIM":7657,"Ġcomputation":7658,"Ġchars":7659,"Ġmetavar":7660,"since":7661,"Ġcar":7662,"Ġdescribed":7663,"å®":7664,"ĠSystem":7665,"Ġsignals":7666,"boto":7667,"Ġmodification":7668,"ience":7669,"manifest":7670,"stone":7671,"Ġicon":7672,"ĠIgn":7673,"Param":7674,"learn":7675,"icipant":7676,"ĠMap":7677,"Identifier":7678,"ĠSN":7679,"tb":7680,"Ġconsistent":7681,"letes":7682,"ĠHowever":7683,"queeze":7684,"finished":7685,"Ġ</":7686,"war":7687,"Ġqs":7688,"hparams":7689,"retries":7690,"probab":7691,"ĠEither":7692,"Ġsimulation":7693,"Transform":7694,"negative":7695,"urb":7696,"locale":7697,"={},":7698,"Ġcopied":7699,"ssibly":7700,"hours":7701,"Ġhaving":7702,"osome":7703,"Ġformula":7704,"Bar":7705,"Ġsin":7706,"live":7707,"'}},":7708,"WA":7709,"Ġct":7710,"Ġ90":7711,"saved":7712,"Ġ^":7713,"filenames":7714,"Ġtransformation":7715,"/.":7716,"Ġdy":7717,"Ġtrying":7718,"ĊĠĠĠĠĠĠĠĠĠĠĠĠĠĠĠĠĠĠĠĠĠĠĠĠĠĠĠĠĠĠĠĠĠĠĠĠĠĠĠĠĠĠĠĠĠĠĠĠĠĠĠĠĠĠĠ":7719,"RF":7720,"Ġatoms":7721,"stud":7722,"Ġrgb":7723,"ĠPh":7724,"ĠHel":7725,"serializer":7726,"median":7727,"riendly":7728,"ĠÐ":7729,"Ġsq":7730,"dns":7731,"Ġec":7732,"Ġglyph":7733,"character":7734,"Ġbinding":7735,"density":7736,"Ġdefaultdict":7737,"currency":7738,"Ġinterfaces":7739,"latitude":7740,"Copy":7741,"è¡":7742,"ĠĠĠĠĠĠĠĠĠĠĠĠĠĠĠĠĠĠ":7743,"generic":7744,"SCII":7745,"(\".":7746,"Ġroom":7747,"izers":7748,"calculate":7749,"Ġtimer":7750,"orn":7751,"__[":7752,"Save":7753,"åŃ":7754,"inct":7755,"validator":7756,"Ġcap":7757,"sky":7758,"difference":7759,"NUM":7760,"station":7761,"numeric":7762,"aps":7763,"Ġ13":7764,"interpol":7765,"Ġspin":7766,"conditions":7767,"Cursor":7768,"Ġstypes":7769,"sensus":7770,"Ġattempts":7771,"42":7772,"Ġverbosity":7773,"globals":7774,"arante":7775,"Ġwon":7776,"Vis":7777,"coun":7778,"agg":7779,"notes":7780,"Ġstdin":7781,"sampling":7782,"stand":7783,"west":7784,"dimensional":7785,"dap":7786,"support":7787,"measurement":7788,"RPC":7789,"Ġreached":7790,"iguous":7791,"Ġops":7792,"xc":7793,"ĠStore":7794,"Rece":7795,"Ġmicro":7796,"Ġacc":7797,"Admin":7798,"gered":7799,"))[":7800,"Ġupd":7801,"=[],":7802,"rem":7803,"Ġpillar":7804,"Ġgithub":7805,"statistics":7806,"/{}":7807,"Ġgs":7808,"isode":7809,"ĠParameter":7810,"Ġpolygon":7811,"pull":7812,"ĠChange":7813,"ĠSetter":7814,"Matrix":7815,"locate":7816,"elta":7817,"xyz":7818,"]',":7819,"Ġanchor":7820,"('')":7821,"Ġtempfile":7822,"specs":7823,"Ġocc":7824,"ultiple":7825,"Ġprob":7826,"Ġprinted":7827,"genome":7828,"LY":7829,"seudo":7830,"Ġbrowser":7831,"interfaces":7832,"Ġdynamic":7833,"compressed":7834,"ĠConstruct":7835,"UND":7836,"Ġcutoff":7837,"è®":7838,"ĠConverts":7839,"Ġclusters":7840,"alect":7841,"Ġcompile":7842,"callbacks":7843,"ĠAssertionError":7844,"LT":7845,"Ġwhitespace":7846,"shapes":7847,"Ġargv":7848,"ACT":7849,"Limit":7850,"Ġblue":7851,"Val":7852,"ye":7853,"Ġconfirm":7854,"quant":7855,"pag":7856,"configure":7857,"aking":7858,"Comm":7859,"offsets":7860,"traceback":7861,"ĠSpecify":7862,"Ġchoose":7863,"sembly":7864,"native":7865,"timezone":7866,"Ġquiet":7867,"IR":7868,"Root":7869,"Ġgp":7870,"formatted":7871,"ĠCom":7872,"USE":7873,"Ġdecla":7874,"pert":7875,"ĠUsage":7876,"404":7877,"VAR":7878,"ç»":7879,"ATCH":7880,"Ġsilent":7881,"Ġiso":7882,"Ġmaybe":7883,"Factory":7884,"must":7885,"orph":7886,"Ġdoctest":7887,"rh":7888,"orator":7889,"Ġcancel":7890,"ilename":7891,"ances":7892,"indic":7893,"bum":7894,"MT":7895,"ailab":7896,"structions":7897,"SUB":7898,"bp":7899,"nor":7900,"Ġdepends":7901,"Ġdistances":7902,"repos":7903,"ĠNum":7904,"->":7905,"Hash":7906,"tip":7907,"unded":7908,"ĠAmazon":7909,"gies":7910,"transfer":7911,"Does":7912,":**":7913,"000000":7914,"Ġwindows":7915,"98":7916,"mig":7917,"Defin":7918,"zoom":7919,"Ġcha":7920,"72":7921,"Ġpositional":7922,"Ġitertools":7923,"Application":7924,"Ġcoefficient":7925,"Ġtorch":7926,"repeat":7927,"did":7928,"ĠRequired":7929,"])]":7930,"Ġleading":7931,"Ġsolver":7932,"ĠEX":7933,"bolic":7934,"ĠGit":7935,"ields":7936,"ĠStr":7937,"ĠDataset":7938,"ĊĠĠĠĠĠĠĠĠĠĠĠĠĠĠĠĠĠĠĠĠĠĠĠĠĠĠĠĠĠĠĠĠĠĠĠĠĠĠĠĠĠĠĠĠĠĠĠĠĠĠĠĠĠ":7939,"tm":7940,"Ġ(_":7941,"Ġexposure":7942,"Ġfasta":7943,")\")":7944,"met":7945,"Ġpg":7946,"rols":7947,"trim":7948,"Ġgetting":7949,"hem":7950,"Ġsubmission":7951,"Ġprovides":7952,"________":7953,"means":7954,"Ġsquare":7955,"ĠPri":7956,"ĠDist":7957,"visor":7958,"Ġexpanded":7959,"Ġhandled":7960,">',":7961,"va":7962,"Ġvox":7963,"transition":7964,"crypto":7965,"embedding":7966,"appa":7967,"ĠOperationFailed":7968,"byref":7969,"Ġclients":7970,"venience":7971,"Ġsamp":7972,"ĠRO":7973,"TEMP":7974,"Ġweighted":7975,"Ġbounding":7976,"namespaced":7977,"æĸĩ":7978,"Post":7979,"Ġnl":7980,"ĠPol":7981,"daemon":7982,"Ġtyp":7983,"square":7984,"Ġraster":7985,"ĠDjango":7986,"mmar":7987,"Ġspectrum":7988,"LATE":7989,"normalized":7990,"Ġarbitrary":7991,"pw":7992,"Ġopened":7993,"Ġordering":7994,"Ġ'-'":7995,"LD":7996,"^\\":7997,"resolution":7998,"workers":7999,"Ġclassification":8000,"Ġdescribing":8001,"margin":8002,"Ġol":8003,"aming":8004,"cay":8005,"ĠUN":8006,"Ġtrailing":8007,"Callback":8008,"learning":8009,"=''):":8010,"TRI":8011,"ĠPart":8012,"two":8013,"Ġequation":8014,"NN":8015,"deriv":8016,"actual":8017,"Ġserializer":8018,"Account":8019,"pin":8020,"relationship":8021,"AUTH":8022,"processes":8023,"imize":8024,"DELETE":8025,"Ġreally":8026,"Ġepsilon":8027,"working":8028,"BY":8029,"fpath":8030,"mtime":8031,"represent":8032,"rich":8033,"ĠMet":8034,"django":8035,"six":8036,"Ġrename":8037,"Ġten":8038,"Ġiterate":8039,"Current":8040,"Settings":8041,"Calculate":8042,"ctl":8043,"odb":8044,"Ġtransformed":8045,"ĠWeb":8046,"\"{":8047,"Ġvlan":8048,"when":8049,"room":8050,"Ġsoft":8051,"translate":8052,"/\"":8053,"wind":8054,"UNK":8055,"'})":8056,"CLI":8057,"Unsupported":8058,"ĠPerform":8059,"gence":8060,"wo":8061,"Ġxmlns":8062,"URCE":8063,"listen":8064,"(\",":8065,"])[":8066,"agger":8067,"ttl":8068,"VICE":8069,"gc":8070,"solver":8071,"lets":8072,"urnal":8073,"ĠBad":8074,"front":8075,"Ġoccurred":8076,"Now":8077,"ln":8078,"Ġnotes":8079,"confirm":8080,"filtered":8081,"Select":8082,"ĠAddress":8083,"500":8084,"linspace":8085,"Ġplotting":8086,"uniform":8087,"tected":8088,"Ġcompound":8089,"sequent":8090,"ceil":8091,"WOR":8092,"Ġthresh":8093,"ĠSince":8094,"Ġ%.":8095,"incipal":8096,"'ve":8097,"matplotlib":8098,"Ġ\"\".":8099,"XY":8100,"mapped":8101,"Register":8102,"Ġpreserve":8103,"jectory":8104,"checksum":8105,"temperature":8106,"java":8107,"Ġhandles":8108,"mitive":8109,"Ġ1024":8110,"pv":8111,"Ġcanonical":8112,"Ġnearest":8113,"ĠXXX":8114,"Ġdefines":8115,"operations":8116,"Files":8117,"Ġcompressed":8118,"ĠStopIteration":8119,"groupby":8120,"border":8121,"artifact":8122,"Ġchart":8123,"describe":8124,"Batch":8125,"bridge":8126,"Ġ()":8127,"Ġstation":8128,"runner":8129,"CAC":8130,"Ġ{!":8131,"ALI":8132,"Project":8133,"insum":8134,"ĠApply":8135,"ylim":8136,"Ġcorresponds":8137,"Track":8138,"Expected":8139,"digits":8140,"Ġmaking":8141,"treat":8142,"stor":8143,"Ġlex":8144,"Ġ40":8145,"aliases":8146,"xpath":8147,"Ġlisted":8148,"capacity":8149,"Ġattachment":8150,"Ġnewline":8151,"iodic":8152,"54":8153,"Ġfew":8154,"Ġbp":8155,"Ġdisplayed":8156,"meas":8157,"oute":8158,"([])":8159,"Ġvisit":8160,"Ġrecursively":8161,"countered":8162,"kill":8163,"compare":8164,"dfs":8165,"Ġformatting":8166,"ĠUTC":8167,"Popen":8168,"(\"\"":8169,"kv":8170,"Ġpin":8171,"Ġquality":8172,"Ġguarante":8173,"Lib":8174,"Ġretries":8175,"Ġsubmit":8176,"EXT":8177,"Ġpredicted":8178,"Font":8179,"Ġgap":8180,"limited":8181,"Ġrepresented":8182,"Bind":8183,"BASE":8184,"terminal":8185,"hot":8186,"Interface":8187,"mkdir":8188,"ailability":8189,"osed":8190,"nonzero":8191,"examples":8192,"artesian":8193,"Builder":8194,":].":8195,"Ġbasename":8196,"Ġallele":8197,"mol":8198,"beat":8199,"LIST":8200,"Ġ'$":8201,"ĠMay":8202,"separator":8203,"iming":8204,"Ġretval":8205,"longitude":8206,"Ġtolerance":8207,"Ġmajor":8208,"share":8209,"ixin":8210,"Ġmeth":8211,"Ġfilesystem":8212,"Ġissues":8213,"objs":8214,"Ġpersist":8215,"PREFIX":8216,"Given":8217,"cks":8218,"dia":8219,"DP":8220,"aux":8221,"Ġapplies":8222,"\\\"":8223,"Ġnargs":8224,"Ġdummy":8225,"keyid":8226,"ĠRecord":8227,"Ġphone":8228,"Flag":8229,"defs":8230,"matching":8231,"Offset":8232,"rites":8233,"pickle":8234,"Ġlive":8235,"Ġcallbacks":8236,"Ġtun":8237,"precation":8238,"128":8239,"definitions":8240,"pip":8241,"rx":8242,"removed":8243,"ĠThen":8244,"Ġrendered":8245,"fcoe":8246,"without":8247,"Ġminor":8248,"Ġclosest":8249,"Align":8250,"Ġseveral":8251,"Ġdns":8252,"funcs":8253,"ĠValidate":8254,"Ġlogged":8255,"pher":8256,"overflow":8257,"fq":8258,"__:":8259,"Adds":8260,"Ġreach":8261,"binding":8262,"Ġpp":8263,"ĠPermission":8264,"Ġactivation":8265,"')))":8266,"EP":8267,"lips":8268,"widths":8269,"sterior":8270,"Ġoccurs":8271,"Ġidentical":8272,"Ġpdb":8273,"Ġchan":8274,"Ġnormalization":8275,"assignment":8276,"buff":8277,"Ġzeros":8278,"xlim":8279,"ongs":8280,"problem":8281,"Ġfiltering":8282,"Component":8283,"Sc":8284,"Ġtreat":8285,"unct":8286,"Ġoverla":8287,"hazard":8288,"ĠVersion":8289,"viders":8290,"Ġaccepts":8291,"LAN":8292,"Ġworld":8293,"Ġ\"\":":8294,"cluding":8295,"(',')":8296,"BE":8297,"}`":8298,"thers":8299,"quared":8300,"Ġvarious":8301,"Ġmarkers":8302,"evaluate":8303,".+":8304,"æĺ":8305,"Ġfollows":8306,"Ġaff":8307,"Next":8308,"perms":8309,"elif":8310,"Ġdoing":8311,"=\"%":8312,"degrees":8313,"Ġcd":8314,"ught":8315,"Ġnewly":8316,"litude":8317,".:":8318,"vc":8319,"Ġbank":8320,"Ġmet":8321,"Ġouter":8322,"Web":8323,"ners":8324,"remaining":8325,"Ġintersection":8326,"Ġcombination":8327,"BR":8328,"Ġfinish":8329,"Ġcipher":8330,"adow":8331,"Internal":8332,"~~~~":8333,"getcwd":8334,"OPTION":8335,"Ġrestore":8336,"Ġ{{":8337,"usion":8338,"...\")":8339,"Descriptor":8340,"ĠSpecifies":8341,"ĠTemplate":8342,"ĠĠĠĠĠĠĠĠĠĠĠĠĠĠĠĠĠ":8343,"ĠColumn":8344,"Ġbed":8345,"constraint":8346,"Ġ500":8347,"Sample":8348,"Ġsuitable":8349,"wrapped":8350,"ctrl":8351,"ĠSort":8352,"Ġhashlib":8353,"initialized":8354,"ĠIterable":8355,"tcp":8356,"Ġ\"__":8357,"Unit":8358,"Normal":8359,"`).":8360,"Ġconfigs":8361,"queryset":8362,"Ġmanually":8363,"cuit":8364,"equ":8365,"isnan":8366,"ĠContext":8367,"ĠStream":8368,"rea":8369,"NotExist":8370,"completed":8371,"Json":8372,"Ġdetail":8373,"moving":8374,"Ġstar":8375,"mpaign":8376,"Ġrs":8377,"UNT":8378,"venance":8379,"adj":8380,"endor":8381,"Ġtranslate":8382,"xies":8383,"svg":8384,"hexdigest":8385,"Ġmacro":8386,"Ġadata":8387,"Ġbulk":8388,"(\"_":8389,"matched":8390,"Ġyields":8391,"localhost":8392,"Show":8393,"impl":8394,"Ġcov":8395,"Ġtic":8396,"small":8397,"Stack":8398,"Script":8399,"land":8400,"spac":8401,"Ġasc":8402,")\"\"\",":8403,"SEPAR":8404,"Ġestimator":8405,"compatible":8406,"Ġderivative":8407,"Ġlight":8408,"vy":8409,"thro":8410,"ĠCallable":8411,"scatter":8412,"73":8413,"mn":8414,"Ġconfidence":8415,"ĠConfiguration":8416,"ĠBackends":8417,"Total":8418,"einsum":8419,"cepts":8420,"execution":8421,"Ġatt":8422,"Ġhdr":8423,"separated":8424,"Ġhorizontal":8425,"Ġtau":8426,"specified":8427,"ArgumentParser":8428,"_=":8429,"Ġstrategy":8430,"Ġindexed":8431,"Prefix":8432,"Ġrepeat":8433,"Failure":8434,"zed":8435,"information":8436,"Ġtc":8437,"REC":8438,"Dep":8439,"Ġcs":8440,"Ġcapture":8441,"ĠSerial":8442,"Ġbroker":8443,"hide":8444,"ĠĠĠĠĠĠĠĠĠĠĠĠĠĠĠĠĠĠĠ":8445,"Att":8446,"alo":8447,"Ġ{}:":8448,"ä½":8449,"ĠthisObj":8450,"Generator":8451,"ĠYANGDynClass":8452,"ĠTakes":8453,"YANGDynClass":8454,"Ġproj":8455,"ctet":8456,"preview":8457,"Ġappended":8458,"umption":8459,"Ġexpressions":8460,"Empty":8461,"llegal":8462,"Ġgeneration":8463,"tailed":8464,"spin":8465,"Ġextent":8466,"Ġlikely":8467,"Ġaws":8468,"grp":8469,"randint":8470,"eg":8471,"Ġdl":8472,"take":8473,"ĠAct":8474,"pically":8475,"ĠCopy":8476,"Ġmasked":8477,"resolved":8478,"plt":8479,"SSAGE":8480,"Ġsph":8481,"updates":8482,"Ġflush":8483,"classification":8484,"flu":8485,"Ġcorrespond":8486,"unicate":8487,"iloc":8488,"ĠCSV":8489,"mul":8490,"decoder":8491,"intf":8492,"Ġtranscript":8493,"Ġplayer":8494,"Tool":8495,"Login":8496,"arrow":8497,"Ġcores":8498,"Ġ[('":8499,"resolver":8500,"Ġproduce":8501,"ĠUses":8502,"ĠProject":8503,"ĠNotFound":8504,"yntaxError":8505,"}\",":8506,"CMD":8507,"alancer":8508,"Ġreduced":8509,"histogram":8510,"CATION":8511,"grains":8512,"KEN":8513,"_):":8514,"Ġii":8515,"lobs":8516,"Retrieve":8517,"Ġusually":8518,"Required":8519,"Ġprotein":8520,"Ġleaf":8521,"compound":8522,"Ġsudo":8523,"Net":8524,"Ġmk":8525,"']=":8526,"omin":8527,"interp":8528,"TEST":8529,"Ġscene":8530,"panel":8531,"Ġsatis":8532,"Ġexcluded":8533,"Ġxmax":8534,"pretty":8535,"udit":8536,"])))":8537,"DC":8538,"dit":8539,"ament":8540,"izable":8541,"Ġdeviation":8542,"registered":8543,"between":8544,"ĠNullArgument":8545,"Ġwho":8546,"usted":8547,"Ġjs":8548,"ĠDoes":8549,"Ġduplicates":8550,"consumer":8551,"trl":8552,"Ġna":8553,"ĊĠĠĠĠĠĠĠĠĠĠĠĠĠĠĠĠĠĠĠĠĠĠĠĠĠĠĠĠĠĠĠĠĠĠĠĠĠĠĠĠĠĠĠĠĠĠĠĠĠĠĠĠĠĠ":8554,"Ġcleanup":8555,"pabilities":8556,"Ġcss":8557,"SSL":8558,"LAB":8559,"'{":8560,"SR":8561,"nick":8562,"apps":8563,"ĠEC":8564,"SOURCE":8565,"/<":8566,"}',":8567,"Ġwildcard":8568,"person":8569,"subplot":8570,"contrib":8571,"crease":8572,"Ġpercentage":8573,"Ġdiv":8574,"mous":8575,"Example":8576,"inspect":8577,"ARD":8578,"population":8579,"ROOT":8580,"rn":8581,"}\")":8582,"recursive":8583,"anging":8584,"Ġmatrices":8585,"ordin":8586,"FIN":8587,"ann":8588,"ĠVariable":8589,"ĠUsing":8590,"Ġjump":8591,"COMP":8592,"Ġpoll":8593,"ĠAb":8594,"pie":8595,"ashboard":8596,"Ġipv":8597,"Hist":8598,"going":8599,"Ġ180":8600,"abc":8601,"ĠWith":8602,"SEPARATOR":8603,"minor":8604,"Ġtools":8605,"Ġrm":8606,"Ġlaunch":8607,"minutes":8608,"START":8609,"Ġvelocity":8610,"Ġmi":8611,"Ġgl":8612,"Ġ18":8613,"ĠPost":8614,"smooth":8615,"rune":8616,"notebook":8617,"MC":8618,"Usage":8619,"exact":8620,"thernet":8621,"ĠKE":8622,"least":8623,"uming":8624,"Ġboard":8625,"Ġroutine":8626,"Ġsink":8627,"pacing":8628,"åį":8629,"Ġomitted":8630,"lax":8631,"ĠTag":8632,"mapper":8633,"probs":8634,"duces":8635,"...')":8636,"literal":8637,"collections":8638,":]:":8639,"Ġgzip":8640,"bases":8641,"Ġangles":8642,"masked":8643,"ITS":8644,"Ġbootstrap":8645,"adratic":8646,"Ġndim":8647,"Ġorientation":8648,"mtree":8649,"Entity":8650,"Ġincoming":8651,"ĠTarget":8652,"should":8653,"imension":8654,"mpy":8655,"Ġdecoder":8656,"Ġhighest":8657,"Ġ-----------":8658,"solve":8659,"inline":8660,"Ġtp":8661,"ĠAccess":8662,"Interrupt":8663,"Ġfontsize":8664,"Layout":8665,"400":8666,"Ġwallet":8667,"levation":8668,"gid":8669,"recognized":8670,"Ġothers":8671,"allen":8672,"variants":8673,"ĠHttpResponse":8674,"600":8675,"Cells":8676,"rsplit":8677,"Ġrestriction":8678,"ĠEnvironment":8679,"quad":8680,"Ġrpc":8681,"letion":8682,"allele":8683,"Title":8684,"Ġtrial":8685,"Ġide":8686,"Ġfits":8687,"asc":8688,"Ġencryption":8689,"ĊĉĉĊĉ":8690,"Ġcharset":8691,"ä¸º":8692,"Edit":8693,"Ġnor":8694,"Ġ\"+":8695,"olding":8696,"setLevel":8697,"COMM":8698,"Timestamp":8699,"igs":8700,"aring":8701,"Ġ','.":8702,"Ġevaluated":8703,"periods":8704,"lapse":8705,"åĽŀ":8706,"Ġreject":8707,"coverage":8708,"Ġlv":8709,"Ġbroadcast":8710,"']}":8711,"intext":8712,"under":8713,"blank":8714,"rotation":8715,"shutdown":8716,"{'":8717,"routing":8718,"mainder":8719,"ĠMy":8720,"Ġobservations":8721,"REF":8722,"></":8723,"Stop":8724,"Volume":8725,"wers":8726,"ripts":8727,"Ġorbit":8728,"Ġcomplet":8729,"accounts":8730,"dy":8731,"pas":8732,"Ġhad":8733,"Section":8734,"Ġavg":8735,"theme":8736,"Ġstand":8737,"Ġfilled":8738,"strain":8739,"special":8740,"boundary":8741,"SPACE":8742,"developer":8743,"but":8744,"Ġfigs":8745,"streams":8746,"2000":8747,"atural":8748,"routes":8749,"lace":8750,"Ġexchange":8751,"hint":8752,"ython":8753,"ota":8754,"('\"":8755,"ocus":8756,"fragment":8757,"Ġidentifiers":8758,"Ġobtained":8759,"provision":8760,"Ġlooks":8761,"ĠShow":8762,"Ġperformance":8763,"Top":8764,"ĠDocument":8765,"received":8766,"Ġdeployment":8767,"parallel":8768,"ifiers":8769,"statements":8770,"tzinfo":8771,"HI":8772,"Writer":8773,"tot":8774,"instrument":8775,"ctypes":8776,"iline":8777,"Ġuniform":8778,"partitions":8779,"Ġmappings":8780,"Ġdirname":8781,"Ġinserted":8782,"59":8783,"samp":8784,"Ġ;":8785,"ĠPoint":8786,"Ġdeli":8787,"Ġnamespaces":8788,"Ġcombine":8789,"Ġcpu":8790,"vcs":8791,"ĠYAML":8792,"ĠColor":8793,"46":8794,"MQ":8795,"Ġcoverage":8796,"Split":8797,"syntax":8798,"Ġinject":8799,"strptime":8800,"Ġlistener":8801,"middle":8802,"CACHE":8803,"mongo":8804,"nv":8805,"Ġcontour":8806,"sensor":8807,"Mon":8808,"gui":8809,"Ġlearning":8810,"player":8811,"Lookup":8812,"void":8813,"ä¸Ģ":8814,"STATUS":8815,"recur":8816,"Ġcrop":8817,"Ġthro":8818,">>>":8819,"Ġchr":8820,"Ġzoom":8821,"ĠURLs":8822,"Ġ2016":8823,"lasticsearch":8824,"GO":8825,"éĢ":8826,"Stat":8827,"charge":8828,"Ð°":8829,"ising":8830,"ĠND":8831,"ĠĊĠĠĠĠĠĠĠĠĠĠĠĠĠĠĠ":8832,"urname":8833,"spf":8834,"phone":8835,"CHAR":8836,"ambda":8837,"Ġary":8838,"Ġfar":8839,"()])":8840,"istype":8841,"started":8842,"Ġcare":8843,"DoesNotExist":8844,"quis":8845,"prod":8846,"Ġshown":8847,"Ġbases":8848,"Ġdatatype":8849,"vanced":8850,"illiseconds":8851,"((\"":8852,"Den":8853,"Jo":8854,"Shape":8855,"tas":8856,"Ġgives":8857,"Ġregard":8858,"macro":8859,"ĠSu":8860,"hyper":8861,"PM":8862,"bon":8863,"hits":8864,"caller":8865,"Items":8866,"ĠReplace":8867,"Ġ256":8868,"noun":8869,"Ġservers":8870,"serialized":8871,"pixels":8872,"mavlink":8873,"gradient":8874,"continue":8875,"chanism":8876,"Ġhits":8877,"pients":8878,"starting":8879,"Ġclause":8880,"Definition":8881,"ium":8882,"Ġln":8883,"ĠCustom":8884,"Ġunexpected":8885,"ulations":8886,"Ġcapacity":8887,"Ġdc":8888,"Ġvtk":8889,"physical":8890,"Ġpreferred":8891,"Ġmv":8892,"bindings":8893,"Ġidentified":8894,"exposure":8895,"}:{":8896,"ificant":8897,"ĠAS":8898,"seqs":8899,"unused":8900,"Ġforms":8901,"Ġcod":8902,"Ġxs":8903,"phan":8904,"Ġdistrib":8905,"Rect":8906,"123":8907,"located":8908,"Ġ[{'":8909,"maybe":8910,"deserialize":8911,"Ġcrypto":8912,"Ġpys":8913,"projection":8914,"readlines":8915,"Ġmeasurements":8916,"Ġscheduler":8917,"Ġdeep":8918,"scrib":8919,"licable":8920,"Ġoverlay":8921,"markup":8922,"Ġincrease":8923,"TT":8924,"()['":8925,"ĠPub":8926,"nom":8927,"Ġ---":8928,"Ġartist":8929,"Ġpartitions":8930,"ĠComm":8931,"follow":8932,"Ġindependent":8933,"namespaces":8934,"Ġbeam":8935,"Ġgrouped":8936,"Ġplain":8937,"initialize":8938,"raster":8939,"Ġui":8940,"ĠAnd":8941,"phot":8942,"minute":8943,"LOAD":8944,"999":8945,"URN":8946,"sci":8947,"}')":8948,"references":8949,"Ġtries":8950,"ERS":8951,"Ġsubsequent":8952,"DateTime":8953,"ĠSplit":8954,"Ġdeal":8955,"ĠReference":8956,"Ġwebs":8957,"Ġprojects":8958,"Ġ128":8959,"Ġperson":8960,"STRING":8961,"101":8962,"Ġreaction":8963,"igure":8964,"\"]))":8965,"typ":8966,"Ġ{:":8967,"questions":8968,"Unexpected":8969,"Ġlif":8970,"leting":8971,"umor":8972,"prime":8973,"alysistype":8974,"factors":8975,"velope":8976,")['":8977,"xt":8978,"Ġaccuracy":8979,"Ġ---------":8980,"UTF":8981,"Ġconverter":8982,"Ð¾":8983,"IDs":8984,"ĠJo":8985,"good":8986,"Ġmeaning":8987,"mappings":8988,"Validate":8989,"FLAGS":8990,"!\"":8991,"Gra":8992,"Space":8993,"stable":8994,"ulus":8995,"Ġance":8996,"Ġvo":8997,"ĠTimeout":8998,"Ra":8999,"desk":9000,"Ġfoot":9001,"DED":9002,"ANCE":9003,"quality":9004,"secure":9005,"Mag":9006,"xi":9007,"Ġconvention":9008,"Ġaddition":9009,"iterations":9010,"directories":9011,"Ġupdating":9012,"One":9013,"}_":9014,"coin":9015,"Ġadjac":9016,"Ġ2015":9017,"cus":9018,"mens":9019,"Ġnr":9020,"ĠPY":9021,"Ġaliases":9022,"Cluster":9023,"WE":9024,"lr":9025,"æį":9026,"Ġinstruction":9027,"ĠEl":9028,"Ġencountered":9029,"Ġreadable":9030,"Namespace":9031,"Comple":9032,"ĊĠĠĠĠĠĠĠĠĠĠĠĠĠĠĠĠĠĠĠĠĠĠĠĠĠĠĠĠĠĠĠĠĠĠĠĠĠĠĠĠĠĠĠĠĠĠĠĠĠĠĠĠĠĠĠĠĠĠĠĠĠĠĠĠĠĠĠĠĠĠĠĠĠĠĠĠĠĠĠĠĠĠĠĠĠĠĠĠ":9033,"Wait":9034,"Ġcid":9035,"domains":9036,"fir":9037,"izations":9038,"(\"[":9039,"Ġkill":9040,"Ġdescribe":9041,"hierarchy":9042,"Ġ'(":9043,"Ġcolour":9044,"ĠSkip":9045,"Extra":9046,"decorator":9047,"spacing":9048,"Ġcm":9049,"ĠRPC":9050,"Ġpprint":9051,"plane":9052,"åĬ":9053,"utures":9054,"ĠInt":9055,"Ġleave":9056,"Factor":9057,"angular":9058,"ATED":9059,"Transaction":9060,"squeeze":9061,"vailable":9062,"lide":9063,"Ġmer":9064,"Wh":9065,"Ġinvoked":9066,"}-":9067,"Ġregistration":9068,"Ġspatial":9069,"crop":9070,"Ġins":9071,"ĠRaise":9072,"Pix":9073,"ansion":9074,"mpath":9075,"Ġlinked":9076,"Ġfour":9077,"celer":9078,"RECT":9079,"ĠLook":9080,"attachment":9081,"Ġinfer":9082,"Ġfire":9083,"sgi":9084,"Ġremoving":9085,"Loc":9086,"_['":9087,"mix":9088,"incomplete":9089,"Ġmargin":9090,"radians":9091,"Ġtenant":9092,"Ġreload":9093,"ĠFa":9094,"protein":9095,"Ġfaster":9096,"issuer":9097,"tls":9098,"ĠRGB":9099,"ĠValues":9100,"TES":9101,"activate":9102,"Ġaggregate":9103,"gi":9104,"Ġhold":9105,"='%":9106,"Ġunion":9107,"ĠUp":9108,"snmp":9109,"Ġarticle":9110,"Float":9111,"Flags":9112,"Ġfc":9113,"Ġfu":9114,"Ġ\\\"":9115,"residue":9116,"Plugin":9117,"/',":9118,"illa":9119,"ĠSSL":9120,"iteration":9121,"Ġaggregation":9122,"OM":9123,"Ġhazard":9124,"Ġosid":9125,"irect":9126,"vtk":9127,"Ġsolve":9128,"ĠNULL":9129,"Ġunused":9130,"Ġcomps":9131,"boxes":9132,":`~.":9133,"Ġemit":9134,"runk":9135,"68":9136,"encryption":9137,"Ġ'\\\\":9138,"places":9139,"ANGE":9140,"Ġthreading":9141,"Analysis":9142,"scipy":9143,"Ġrepos":9144,"ads":9145,"Ġ([":9146,"Ġ_(\"":9147,"associ":9148,"hashes":9149,"nonce":9150,"ĠHelper":9151,"GIN":9152,"Ġrhs":9153,"Ġymax":9154,"Ġprocessor":9155,"Go":9156,"enotype":9157,"Ġ\"#":9158,"Ġskipped":9159,"Ġoverrides":9160,"Ðµ":9161,"Ġquantity":9162,"trunc":9163,"tainty":9164,"ĠDownload":9165,"Ġresidual":9166,"Pr":9167,"SB":9168,"cleanup":9169,"Ġprobabilities":9170,"MD":9171,"Pay":9172,"finish":9173,"Ġbs":9174,"Close":9175,"seen":9176,"lask":9177,"(':')":9178,"reated":9179,"ĠMO":9180,"Ġphysical":9181,"ä¸ª":9182,"fm":9183,"Ġmail":9184,"Ġminute":9185,"ĠValidationError":9186,"Changed":9187,"Interval":9188,"Attemp":9189,"predicate":9190,"Ġsci":9191,"Ġsheet":9192,"Ġeq":9193,"CD":9194,"lest":9195,"PEN":9196,"topics":9197,"termines":9198,"gpu":9199,"Ġoptimization":9200,"half":9201,"inux":9202,"ancy":9203,"Ġ400":9204,"Ġworkers":9205,"ĠJob":9206,"180":9207,"branches":9208,"clock":9209,"queries":9210,"resize":9211,"Ġcanvas":9212,"Ġurlparse":9213,"Ġfollowed":9214,"dry":9215,"vile":9216,"Ġreferenced":9217,"VA":9218,"Ġsear":9219,"ĠINT":9220,"===":9221,"vpc":9222,"ftp":9223,"Ġcalendar":9224,"Ġ\"{}\"":9225,"ĠOPTIONAL":9226,"klass":9227,"åº":9228,"Ġeg":9229,"Ġhierarchy":9230,"\")[":9231,"Ġsoup":9232,"Ġdiagonal":9233,"Ġbi":9234,"rength":9235,"overlay":9236,"'+":9237,"Ġhide":9238,"additional":9239,"Ġmarked":9240,"candidates":9241,"Ġdead":9242,"Ġencrypt":9243,"Authorization":9244,"Ġscaled":9245,"*,":9246,"300":9247,"Try":9248,"analysistype":9249,"ĠPage":9250,"ĠInteger":9251,"67":9252,"PN":9253,"llable":9254,"Ġcompiled":9255,"Stats":9256,"Ġinteractive":9257,"boardInterrupt":9258,"Ġletter":9259,"pex":9260,"Ġspecimen":9261,"Ġlikelihood":9262,"Checks":9263,"extended":9264,":`\\":9265,"Rate":9266,"Ġsd":9267,"rogram":9268,"orders":9269,"perform":9270,"ĠMI":9271,"Ġplaceholder":9272,"Ġshortcut":9273,"Ġinf":9274,"Ġglobals":9275,"/#":9276,"jar":9277,"pedia":9278,"tegr":9279,"newaxis":9280,"Protocol":9281,"Ġhyd":9282,"Mask":9283,"dynamic":9284,"Ġspi":9285,"Ġpolynomial":9286,"ĠGenerates":9287,"anity":9288,"listener":9289,"Ġassumes":9290,"=__":9291,"prefixes":9292,"overwrite":9293,"ParseError":9294,"Ġrespectively":9295,"cookies":9296,"Ġsen":9297,"__'):":9298,"æĹ¶":9299,"stackoverflow":9300,"Domain":9301,"Word":9302,"glyph":9303,"orb":9304,"Ġfrequencies":9305,"Ġprog":9306,"Ġiteritems":9307,"BB":9308,"Ġmouse":9309,"Ġ[%":9310,"poses":9311,"floor":9312,"Cate":9313,"Ġinvert":9314,"Ġens":9315,"###":9316,"Zone":9317,"Ġttl":9318,"lopen":9319,"Ġcheckpoint":9320,"Ġ404":9321,"disconnect":9322,"ĠTrace":9323,"cates":9324,"ĊĊĉĉ":9325,"Ġnc":9326,"Ġ'?":9327,"Keep":9328,"TIMEOUT":9329,"Buffer":9330,"Ġembedded":9331,"HOST":9332,"IX":9333,"authorization":9334,"ygons":9335,"pmag":9336,"Ġnn":9337,"endpoints":9338,"ĠSelect":9339,"lb":9340,"Ġ\"(":9341,"Ġnotify":9342,"++":9343,"Ġslices":9344,"artist":9345,"Ġsessions":9346,"Ġgeom":9347,"Ġmyminion":9348,"è¿Ķ":9349,"Called":9350,"Creating":9351,"Package":9352,"arily":9353,"rmtree":9354,"Ġfin":9355,"ĠExecute":9356,":{":9357,"Raw":9358,"chart":9359,"Ġrid":9360,"scp":9361,"ĠBu":9362,"Ġupgrade":9363,"Ġsaltenv":9364,"Points":9365,")?":9366,"ĠCF":9367,"logits":9368,"ĠGu":9369,"Ġoptimizer":9370,"Ġadapt":9371,"Http":9372,"basis":9373,"km":9374,"Ġì":9375,"Ġtreated":9376,"around":9377,"Ġbalance":9378,"Ġdatastore":9379,"ĠVAL":9380,"FE":9381,"There":9382,"given":9383,"potential":9384,"peg":9385,"ups":9386,"Integer":9387,"ĊĠĠĠĠĠĠĠĠĠĠĠĠĊĊĠĠĠ":9388,"Ġslow":9389,"ĠMapping":9390,"feat":9391,"åıĸ":9392,"Ġincorrect":9393,"Ġrunner":9394,"slices":9395,"čĊĠĠĠĠĠĠĠĠĠĠĠĠĠĠĠĠĠĠĠĠĠĠĠĠĠĠĠ":9396,"Ġtodo":9397,"Ġalphabet":9398,"pay":9399,"Ġlargest":9400,"è¿ĶåĽŀ":9401,"]/":9402,"ĠSchema":9403,"Ġfeat":9404,"Random":9405,"nic":9406,"ĠExtra":9407,"Loader":9408,"anchor":9409,"formula":9410,"ĠProper":9411,"Ġaligned":9412,"Success":9413,"Ġbelong":9414,"GL":9415,"alchemy":9416,"serts":9417,"Ġrenderer":9418,"ech":9419,"mf":9420,"Ġfrozen":9421,"Accept":9422,"Active":9423,"WT":9424,"onom":9425,"qubits":9426,"etic":9427,"Ġroutes":9428,"Ġrecommended":9429,"Denied":9430,"Msg":9431,"Ġattention":9432,"Ġelapsed":9433,"Ġversionchanged":9434,"ĠSession":9435,"entifiers":9436,"Ġrx":9437,"Ġpars":9438,"ĠOK":9439,"locator":9440,"tests":9441,"Ġshutdown":9442,"cmp":9443,"wallet":9444,"Ġinherit":9445,"loy":9446,"chdir":9447,"Ġstuff":9448,"ĠHere":9449,"Sk":9450,"quantity":9451,"Ġints":9452,"ao":9453,"estimator":9454,"ĠCurrently":9455,"Ġmix":9456,"Ġprefixes":9457,"allenge":9458,"sam":9459,"Ġmedian":9460,"lexer":9461,"****************":9462,"dialog":9463,"ĠRemoves":9464,"csr":9465,"DecodeError":9466,"letter":9467,"Ġexpired":9468,"ĠSimple":9469,"ĠCPU":9470,"Ġgateway":9471,"ĠApi":9472,"(\"<":9473,"kb":9474,"Ġmm":9475,"datastore":9476,"ĠWait":9477,"ĠYields":9478,"1234":9479,"lm":9480,"covered":9481,"Ġpast":9482,"Ġenter":9483,"Database":9484,"Ġplus":9485,"ValidationError":9486,"Op":9487,"ories":9488,"ĠEd":9489,"scene":9490,"heads":9491,".],":9492,"ĠAx":9493,"Ġ[_":9494,"Ġpossibly":9495,"Ġupon":9496,"TEN":9497,"...)":9498,"Authentication":9499,"bem":9500,"Ġinitialization":9501,"percentage":9502,"todo":9503,"ji":9504,"Ġrem":9505,"Ġbranches":9506,"too":9507,"Ġvcf":9508,"linux":9509,"aker":9510,"Ġintegration":9511,"ĠOptions":9512,"97":9513,"Pe":9514,"lored":9515,"moment":9516,"nums":9517,"Ġendpoints":9518,"overlap":9519,"Ġfigsize":9520,"[\\":9521,"čĊĠĠĠĠĠĠĠĠĠĠĠĠ":9522,"Ġè":9523,"Ġquick":9524,"Ġsuggest":9525,"Ġelect":9526,"arginal":9527,"containers":9528,"fraction":9529,"Ġrecipient":9530,"bio":9531,"atal":9532,"liers":9533,"ĠLa":9534,"ĠGO":9535,"destroy":9536,"erance":9537,"ĠLength":9538,"Ġclosing":9539,"Display":9540,"Allow":9541,"Ġ':'":9542,"anitize":9543,"hn":9544,"ĠUpdates":9545,"Ġâİ":9546,"prediction":9547,"Ġcontainers":9548,"ADD":9549,"restore":9550,"Ġkv":9551,"relpath":9552,"Ġhighlight":9553,"ĠAssume":9554,")})":9555,"Dial":9556,"Ġack":9557,"ĠIte":9558,"Ġ-->":9559,"Bin":9560,"Tags":9561,"upt":9562,"Ġlista":9563,"Ġending":9564,"Bound":9565,"Ġdependent":9566,"-\\":9567,"dv":9568,"Ġtgt":9569,"vertical":9570,"Ġstructures":9571,"ĠStruct":9572,"dients":9573,"ĠSSH":9574,"ffe":9575,"graphic":9576,"Ġvariants":9577,"Ġindicator":9578,"=('":9579,"crs":9580,"ĠSec":9581,"Ġnonce":9582,"onymous":9583,"Ġpb":9584,"Ġconverts":9585,"mant":9586,"inp":9587,"Ġreserved":9588,"Ġinp":9589,"ĊĠĠĠĠĊĠĠĠĠĠĠĠ":9590,"tenant":9591,"NOWN":9592,"Ġimpro":9593,"ä¼":9594,"Ġ'&":9595,"Ġlab":9596,"abort":9597,"RGB":9598,"mails":9599,"ivot":9600,"ĠLabel":9601,"ĠConnect":9602,"Ġblocking":9603,"TOKEN":9604,"Ġcorpus":9605,"optimizer":9606,"reload":9607,"ellow":9608,"sph":9609,"Report":9610,"Ġdevelo":9611,"Ġfloating":9612,"helpers":9613,"Ġrequirement":9614,"enchmark":9615,"bulk":9616,"Ã©":9617,"increment":9618,"-----+":9619,"cipher":9620,"127":9621,"rfc":9622,",**":9623,"spice":9624,"quid":9625,"Ġheat":9626,"+\"":9627,"cdf":9628,"tell":9629,"ulary":9630,"Ġerrno":9631,"datatype":9632,"HTML":9633,"KeyError":9634,"activation":9635,"Ġhappens":9636,"ĠRegister":9637,"batches":9638,"crit":9639,"epsilon":9640,"hape":9641,"delimiter":9642,"Ġaccounts":9643,"slots":9644,"outcome":9645,"Ġmoving":9646,"Ġdeepcopy":9647,"ĠRFC":9648,"Ġimportant":9649,"MESSAGE":9650,"dependency":9651,"Ġvpc":9652,"lencode":9653,"substit":9654,"idxs":9655,"sphere":9656,"timeseries":9657,"Ġnotifications":9658,"ĠGeo":9659,"93":9660,"ball":9661,"Ġthus":9662,"')),":9663,"Loop":9664,"Ġimpact":9665,"ĠChannel":9666,"ä»¶":9667,"Ġsqrt":9668,"BACK":9669,"Ġann":9670,"Ġpublished":9671,"Running":9672,"Ġrepeated":9673,"*\\":9674,"Ġiface":9675,"Ġrand":9676,"Ġ``\"":9677,"DOC":9678,"Symbol":9679,"Using":9680,"vx":9681,"icles":9682,"Ġ...,":9683,"Ġrefer":9684,"Ġvolumes":9685,"Ġresidue":9686,",%":9687,"Engine":9688,"Site":9689,"filen":9690,"gov":9691,"each":9692,"gd":9693,"iface":9694,"restart":9695,"Ġsplits":9696,"tgt":9697,"Ġsel":9698,"eft":9699,"writes":9700,")\"\"\"":9701,"uit":9702,"Ġvalidated":9703,"Ġ80":9704,"peaks":9705,"Ġcumulative":9706,"infer":9707,"Ġ'').":9708,"logfile":9709,"Ġapps":9710,"responses":9711,"ibling":9712,"ĊĠĠĠĠĠĠĠĠĠĠĠĠĠĠĠĠĠĠĠĠĠĠĠĠĠĠĠĠĠĠĠĠĠĠĠĠĠĠĠĠĠĠĠĠĠĠĠĠĠĠĠĠĠĠĠĠĠ":9713,"mallest":9714,"adapt":9715,"ĠMAX":9716,"ĠCalled":9717,"runs":9718,"clients":9719,"Ġspacing":9720,"workspace":9721,"breviation":9722,"52":9723,"Ġ\\'{":9724,"utcnow":9725,"'%":9726,"raries":9727,"article":9728,"ĠGra":9729,"Ġsorting":9730,"Ġimplicit":9731,"Attributes":9732,"Step":9733,"pared":9734,"subplots":9735,"Ġworkspace":9736,"Ġexpires":9737,"creds":9738,"gres":9739,"artbeat":9740,"Ġoutcome":9741,"charset":9742,"OrderedDict":9743,"za":9744,"pagate":9745,"Ġreceiver":9746,"Assign":9747,"duplicate":9748,"wbem":9749,"ĠDevice":9750,"Ġcoroutine":9751,"Ġkwarg":9752,"writing":9753,"GRO":9754,"encrypted":9755,"Ġinvoke":9756,"Ġsr":9757,"ĠASCII":9758,"Ġproduced":9759,"ariant":9760,"Ġpanel":9761,"43":9762,"Cmd":9763,"It":9764,"yield":9765,"ctype":9766,"magnitude":9767,"------+":9768,"communicate":9769,"Ġseems":9770,"cleaned":9771,"authorized":9772,"LU":9773,"]\")":9774,"uoa":9775,"Ġremain":9776,"Ġbc":9777,"Ġsky":9778,"Parent":9779,"Ġaccum":9780,"[[":9781,"pod":9782,"focus":9783,"modify":9784,"Ġfake":9785,"PR":9786,"Ġtheme":9787,"Ġassets":9788,"Ġalert":9789,"ĠInclude":9790,"Expression":9791,"SES":9792,"ĠVerify":9793,"hdf":9794,"jd":9795,"Ġhashes":9796,"QA":9797,"Ġste":9798,"ĠImplemented":9799,"fac":9800,"Cond":9801,"translation":9802,"Ġbond":9803,"ggle":9804,"53":9805,"Custom":9806,"nowledge":9807,"Doc":9808,"MAC":9809,"arp":9810,"portal":9811,"stride":9812,"Ġstopped":9813,"Ġdidn":9814,"My":9815,"ares":9816,"ĠĠĠĠĠĠĠĠĠĠĠĠĠĠĠĠĠĠĠĠ":9817,"othing":9818,"87":9819,"Windows":9820,"vest":9821,"splits":9822,"visions":9823,"rbridge":9824,"expires":9825,"authenticated":9826,"DER":9827,"orientation":9828,"Ġlit":9829,"Ġdetection":9830,"readable":9831,"Ġapplicable":9832,"1024":9833,"aligned":9834,"figsize":9835,"Ġrecurse":9836,"CLASS":9837,">=":9838,"Gui":9839,"deli":9840,"Ġcredential":9841,"constructor":9842,"tains":9843,"čĊčĊĠĠĠĠĠĠĠĠĠĠĠ":9844,"mysql":9845,"zh":9846,"atched":9847,"Ġoauth":9848,"Ġ'@":9849,"Ġcorrection":9850,"dense":9851,"naif":9852,"}.{":9853,"blacklist":9854,"Bit":9855,"uli":9856,"Ġ17":9857,"locked":9858,"SHA":9859,"ĠDep":9860,").\"\"\"":9861,"returncode":9862,"Exp":9863,"ogen":9864,"Parses":9865,"Ġscopes":9866,"Ġsense":9867,"Ġ00":9868,"centers":9869,"combine":9870,"bian":9871,"tid":9872,"']('":9873,"broadcast":9874,"Ġstddev":9875,"lick":9876,"ĊĠĠĠĠĠĠĠĠĠĠĠĠĠĠĠĠĠĠĠĠĠĠĠĠĠĠĠĠĠĠĠĠĠĠĠĠĠĠĠĠĠĠĠĠĠĠĠĠĠĠĠĠĠĠĠĠĠĠ":9877,"Ġdebugging":9878,"NC":9879,"nado":9880,"design":9881,"topology":9882,"Ġexecutor":9883,"Ġauthenticate":9884,"fault":9885,"Ġbold":9886,"Ġgran":9887,"etree":9888,"Ġcustomer":9889,"Ġstripped":9890,"Non":9891,"Ġliteral":9892,"disabled":9893,"MPLE":9894,"Ġsubstitution":9895,"ĠĠĠĠĠĠĠĠĠĠĠĠĠĠĠĠĠĠĠĠĠ":9896,"abb":9897,"initializer":9898,"Ġauthenticated":9899,"Ġnt":9900,"Ġexpiration":9901,"ĠINPUT":9902,"Global":9903,"ampling":9904,"Ġws":9905,"verb":9906,"POINT":9907,"Ġfactors":9908,"ĠUTF":9909,"Ġvoltage":9910,"Quantity":9911,"Ġnumerical":9912,"distances":9913,"]{":9914,"Ġ({})":9915,"verbosity":9916,"ĠPandas":9917,"Ġgrains":9918,"ĠCount":9919,"Ġsampler":9920,"Ġpf":9921,"Ġxmin":9922,"payment":9923,"stricted":9924,"functools":9925,"ĠDisplay":9926,"MIT":9927,"Ġpadded":9928,"Ġdeci":9929,"answer":9930,"Ġstreams":9931,"('.',":9932,">.":9933,"å¼":9934,"Ġexceed":9935,"ĠAN":9936,"ĠLink":9937,"subj":9938,"Ġorganization":9939,"]\"":9940,"oi":9941,"rations":9942,"æł":9943,"Ġpalette":9944,"fileobj":9945,"foot":9946,"ĠĠĠĠĠĠĠĠĠĠĠĠĠĠĠĠĠĠĠĠĠĠ":9947,"Ġ{%":9948,"journal":9949,"Ġuncer":9950,"renderer":9951,"llite":9952,"sudo":9953,"TRY":9954,"LINK":9955,"indicator":9956,"Ġdynam":9957,"infos":9958,"Ġcurrency":9959,"ora":9960,"otropy":9961,"nearest":9962,"markers":9963,"canonical":9964,"Ġcleaned":9965,"Ġticket":9966,"bgp":9967,"onic":9968,"hello":9969,"Ġrng":9970,"ĠPop":9971,"Ġxpath":9972,"Ġscripts":9973,",:]":9974,"RT":9975,"bri":9976,"ä¿":9977,"isdigit":9978,"Ġlocator":9979,"'^":9980,"Ġpot":9981,"Ġstrain":9982,"Ġwhy":9983,"LENG":9984,"ITH":9985,"Ġrecipe":9986,"aggregate":9987,"catch":9988,"onts":9989,"Ġamb":9990,"Ġeta":9991,"Ġbatches":9992,"ĠAz":9993,"ĠInternal":9994,"cycles":9995,"sdk":9996,"xmin":9997,"Ġpitch":9998,"ĠFrom":9999,"mplements":10000,"loading":10001,"positive":10002,"Region":10003,"('>":10004,"Ġpay":10005,"submission":10006,"Perform":10007,"stock":10008,"Delta":10009,"ĠPRO":10010,"TODO":10011,"+\\":10012,"amel":10013,"atellite":10014,"coeffs":10015,"subscribe":10016,"ny":10017,"oral":10018,"Ġtopology":10019,"coped":10020,"ĠON":10021,"Ġnest":10022,"Ġperiods":10023,"49":10024,"CDF":10025,"chi":10026,"chors":10027,"(\".\")":10028,"Ġxi":10029,"Ġ[]):":10030,"See":10031,"widgets":10032,"LENGTH":10033,"'m":10034,"=[\"":10035,"BEM":10036,"LP":10037,"dh":10038,"ook":10039,"Ġmixed":10040,"Ġ\"*":10041,"ĠOverride":10042,"Ang":10043,"Note":10044,"bc":10045,"Ġstrand":10046,"Ġqubits":10047,"ĠLocal":10048,"argspec":10049,"Ġtimestamps":10050,"guess":10051,"vv":10052,"Ġcn":10053,"Ġoperators":10054,"æį®":10055,"tup":10056,"Ġanim":10057,"Ġprofiles":10058,"Ġ23":10059,"roots":10060,"Columns":10061,"scopes":10062,"Ġticks":10063,"gos":10064,"creation":10065,"ConnectionError":10066,"Properties":10067,"Ġ%}":10068,"LAY":10069,"tunnel":10070,"UES":10071,"ĠEND":10072,"viding":10073,"Ġwavelength":10074,"Ġpieces":10075,"Password":10076,"CG":10077,"rier":10078,"docstring":10079,"ĠNeed":10080,"Ip":10081,"ele":10082,"fu":10083,"infile":10084,"stp":10085,"Ġcalibration":10086,"Reads":10087,"vstack":10088,"requires":10089,"LIB":10090,"legate":10091,",\\":10092,"RUN":10093,"TABLE":10094,"Ġsaving":10095,"Nodes":10096,"Ġvisited":10097,"Len":10098,"Merge":10099,"xlarge":10100,"lision":10101,"ilde":10102,"Retry":10103,"Ġresolver":10104,"ĠĠĠĠĠĠĠĠĠĠĠĠĠĠĠĠĠĠĠĠĠĠĠ":10105,"Ġgenerating":10106,"SERVER":10107,"converter":10108,"AX":10109,"åľ":10110,"ĠMatch":10111,"avig":10112,"Ġchromosome":10113,"Main":10114,"bill":10115,"gain":10116,"uv":10117,"Ġpasses":10118,"ĠREQU":10119,"Ġgreen":10120,"probability":10121,"Menu":10122,"Ġthird":10123,"SIS":10124,"ĠLoop":10125,"Ġapproximate":10126,"altern":10127,"Ġresize":10128,"47":10129,"exchange":10130,"chains":10131,"+',":10132,"Ġnick":10133,"rics":10134,"photo":10135,"ĠLocation":10136,"Segment":10137,"Elements":10138,"PG":10139,"itect":10140,"possible":10141,"cial":10142,"PARAM":10143,"REQUEST":10144,"Pop":10145,"]`":10146,"}_{":10147,"LEV":10148,"marks":10149,"Last":10150,"hp":10151,"palette":10152,"rome":10153,"Ġefficient":10154,"entropy":10155,"Ġtok":10156,"ulator":10157,"Ġll":10158,"ĠPATH":10159,"requested":10160,"Ġrendering":10161,"ĠAttemp":10162,"transcript":10163,"atar":10164,"Ġpen":10165,"upy":10166,"Ġparagraph":10167,"ĠPa":10168,"ĠExt":10169,"Ġdiscrete":10170,"ĠMeas":10171,"Ġboxes":10172,"WORK":10173,"mand":10174,"Ġaspect":10175,"Converts":10176,"ĠAccount":10177,"got":10178,"{\\":10179,"etched":10180,"Ġdestroy":10181,"HTTPError":10182,"Ġbelongs":10183,"CIM":10184,"rout":10185,"assets":10186,"ä¸Ń":10187,"measurements":10188,"attempts":10189,"æī":10190,"Ġnv":10191,"Ġshif":10192,"Ġquotes":10193,"pressure":10194,"Ġascending":10195,"Ġcnt":10196,"otypes":10197,"outh":10198,"acket":10199,"scriptors":10200,"scaled":10201,"tex":10202,"retrieve":10203,"../":10204,"ĠView":10205,"ĠKeyboardInterrupt":10206,"Ġsecondary":10207,"åŃĹ":10208,"ĠKEY":10209,":')":10210,"Ġvmax":10211,"Ġintended":10212,"Extension":10213,"TEMPLATE":10214,"10000":10215,"pct":10216,"reach":10217,"ĠTer":10218,"ĠPort":10219,"Ġintro":10220,"Seq":10221,"Ġboundaries":10222,"Ġeffective":10223,"Security":10224,"Dialog":10225,"Fore":10226,"wl":10227,"contour":10228,"ĠAfter":10229,"ĠSO":10230,"etect":10231,"ĠClean":10232,"ĠIndic":10233,"Ġintermediate":10234,"mplementation":10235,"what":10236,"cedure":10237,"Ġchains":10238,"legram":10239,"ĠCalculates":10240,"acquire":10241,"Ġcorner":10242,"Ġtriggered":10243,"Axes":10244,"scheduler":10245,"ĠHE":10246,"distrib":10247,"folders":10248,"ingular":10249,"rical":10250,"ĠAli":10251,"Ġneur":10252,"Ġfaces":10253,"Ġmolecule":10254,"consts":10255,"Ġstores":10256,"83":10257,"Ġcf":10258,"Ġbb":10259,"filer":10260,"reddit":10261,"ĠTransform":10262,"Ġdetermines":10263,"Ġdeclared":10264,"ipt":10265,"ĠVPC":10266,"ifs":10267,"ĠSetting":10268,"mr":10269,"ĠĊĠĠĠĠĠĠ":10270,"Ġthough":10271,"Ġaren":10272,"ticklabels":10273,"Updates":10274,"today":10275,"Comment":10276,"éĩ":10277,"Ġtweet":10278,"Ġascii":10279,"ĠMatrix":10280,"Ġmaterial":10281,"Ġbuilding":10282,"ĠMem":10283,"uc":10284,"éĹ":10285,"lam":10286,"exus":10287,"Ġexported":10288,"ĠAction":10289,"needed":10290,"MAGE":10291,"Endpoint":10292,"SCRIPTION":10293,"Ġlazy":10294,"achine":10295,"ĠREST":10296,"CCESS":10297,"))):":10298,"policies":10299,"calendar":10300,"=\"{":10301,"DEX":10302,"Ġflask":10303,"Ġnetworks":10304,"TRAN":10305,"PASS":10306,"Ps":10307,"Ġaway":10308,"Ġmapper":10309,"Ġindexing":10310,"Ġintersect":10311,"inspe":10312,"styles":10313,"IGNO":10314,"(?:":10315,"LANG":10316,"Sup":10317,"Ġtt":10318,"encrypt":10319,"alert":10320,"Ġsurname":10321,"Ġhack":10322,"tok":10323,"Ġymin":10324,"Ġhealth":10325,"Ġ360":10326,"Ġwrites":10327,"'\",":10328,"63":10329,"inel":10330,"modes":10331,"generators":10332,"ULTI":10333,"secut":10334,"Ġlb":10335,"sun":10336,"strategy":10337,"Ġlisting":10338,"Ġtopics":10339,"observation":10340,"fontsize":10341,"sb":10342,"}),":10343,"çĽ":10344,"Ġ''))":10345,"Ġha":10346,"gw":10347,"zzy":10348,"inverse":10349,"ĠAB":10350,"Ġdeps":10351,"ĠSP":10352,"ĠModule":10353,"classname":10354,"ĠParses":10355,"HOME":10356,"ĠIterate":10357,"normpath":10358,"Ġretain":10359,"atable":10360,"into":10361,"ĠSample":10362,"ĠGaussian":10363,"[~":10364,"algo":10365,"Ġsystems":10366,"ĠUUID":10367,"\"]]":10368,"ĠPermissionDenied":10369,"atever":10370,"ssue":10371,"indexer":10372,"Ġ[-]":10373,"Day":10374,"hub":10375,"rift":10376,"Ġuploaded":10377,"2015":10378,"ĠUnique":10379,"ĠIgnore":10380,"dropout":10381,"Ġlicense":10382,"coeff":10383,"iness":10384,"ĠFetch":10385,"argparse":10386,"COLOR":10387,"!=":10388,"69":10389,"alm":10390,"Ġhint":10391,"ĠMerge":10392,"Ġplural":10393,"similar":10394,"kt":10395,"always":10396,"strs":10397,"prep":10398,"Invocation":10399,"Ġinfile":10400,"ĠDNS":10401,"ĠNon":10402,"Ġ31":10403,"periments":10404,"cpus":10405,"xxxx":10406,"SKIP":10407,"OPTIONS":10408,"Virtual":10409,"alarm":10410,"pore":10411,"ĠPAR":10412,"ĠMed":10413,"dirty":10414,"Ġ||":10415,"Arn":10416,"aggregation":10417,"Ġslave":10418,"atios":10419,"ctime":10420,"Ġomega":10421,"isis":10422,"vey":10423,"Ġcontinuous":10424,"Ġoverall":10425,"volumes":10426,"ĠâĢ":10427,"RS":10428,"Ð¸":10429,"outdir":10430,"scroll":10431,"ĠSaltCloud":10432,"Ġclock":10433,"ugment":10434,"__',":10435,"ĠThat":10436,"Ġsuppress":10437,"Ġflu":10438,"merged":10439,"ĠFILE":10440,"Initialize":10441,"Ġtm":10442,"Install":10443,"placement":10444,"ĊĠĠĠĠĠĠĠĠĠĠĠĠĠĠĠĠĠĠĠĠĠĠĠĠĠĠĠĠĠĠĠĠĠĠĠĠĠĠĠĠĠĠĠĠĠĠĠĠĠĠĠĠĠĠĠĠĠĠĠ":10445,"both":10446,"health":10447,"Ġwind":10448,"Ġlattice":10449,"checked":10450,"executor":10451,"Ġexpire":10452,"Ġplotted":10453,"TING":10454,"Ġbam":10455,"Ġ\":":10456,"upgrade":10457,"ĠPDF":10458,"Ġcodecs":10459,"interpre":10460,"checkpoint":10461,"receive":10462,"Ġnice":10463,"Ġarrow":10464,"ĠRel":10465,"nest":10466,"Ġbackward":10467,"Ġshapes":10468,"={\"":10469,"Ġforecast":10470,"mutations":10471,"Ġinterpret":10472,")[-":10473,"lc":10474,"stub":10475,"ĠRandom":10476,"Ġgrade":10477,"Ġverification":10478,"Ġmodes":10479,"broker":10480,"Ġlocated":10481,"Execute":10482,"REQUIRED":10483,"ko":10484,"lattice":10485,"ĠOAuth":10486,"ĠQueue":10487,"ponential":10488,"itories":10489,"Lock":10490,"æĿ":10491,"Ġmtf":10492,"Ġpayment":10493,"regular":10494,"titles":10495,"Created":10496,"Ġpiece":10497,"fab":10498,"Memory":10499,"Sim":10500,"Ġoprot":10501,"Ġsampled":10502,"Ġremoves":10503,"ĠDocker":10504,"Ġsimilarity":10505,"SIGN":10506,"ess":10507,"à¸":10508,"reaction":10509,"Ġevidence":10510,"ami":10511,"maker":10512,"ĠCorre":10513,"ĠClear":10514,"ATTER":10515,"compar":10516,"Member":10517,"Socket":10518,"dum":10519,"holders":10520,"iet":10521,"Ġtip":10522,"limin":10523,"rash":10524,"Ġhdu":10525,"ĠNx":10526,"Ġbuckets":10527,"Ġloads":10528,"Ġexpects":10529,"Ġdigit":10530,"vd":10531,"|\\":10532,"adi":10533,"Ġrotate":10534,"clause":10535,"-+-+-+-+-+-+-+-+-+-+-+-+-+-+-+-+":10536,"ĠImp":10537,"DIRECT":10538,"Attr":10539,"Binary":10540,"chines":10541,"getvalue":10542,"Ġ\"[":10543,"ĠPmag":10544,"Ġtimeseries":10545,"crets":10546,"Ġabstract":10547,"Objects":10548,"ĠReads":10549,"Has":10550,"Ġpts":10551,"andi":10552,"pkgs":10553,"Fetch":10554,"TL":10555,"fb":10556,"alty":10557,"lio":10558,"clination":10559,"ĠOUTPUT":10560,"Ġgenerators":10561,"priv":10562,"published":10563,"Ġdetector":10564,"]]:":10565,"Ġfingerprint":10566,"ĠHost":10567,"Ġlanguages":10568,"receiver":10569,"Ġmanaged":10570,"Ġexponent":10571,"Ġ22":10572,"ILD":10573,"Operator":10574,"pem":10575,"ptide":10576,"Recs":10577,"argmax":10578,"COUNT":10579,"uplicate":10580,"bootstrap":10581,"ticket":10582,"Ġcollected":10583,"\"},":10584,"SCHE":10585,"Ġum":10586,"Ġtaking":10587,"Ġcome":10588,"Ġlowest":10589,"ĠCho":10590,"ĠRef":10591,"ĠDynam":10592,"trial":10593,"Ġsupply":10594,"THON":10595,"fallback":10596,"xb":10597,"Ġmilliseconds":10598,"Ġenc":10599,"ĠLet":10600,"registration":10601,"Ġlocally":10602,"LIC":10603,"ĠSFrame":10604,"ĠSCons":10605,"doi":10606,"omatic":10607,"assigned":10608,"silent":10609,"Ġremainder":10610,"Ġgroupby":10611,"omega":10612,"MSG":10613,"Ġlittle":10614,"InvocationError":10615,"Hub":10616,"[...,":10617,"æŀ":10618,"kew":10619,"ĠTR":10620,"Ġgas":10621,"compiler":10622,"REG":10623,"Ġissuer":10624,"Ġscatter":10625,"rightness":10626,"multiplier":10627,"Draw":10628,"alker":10629,"ased":10630,"''.":10631,"=[]":10632,"??":10633,"ima":10634,"ÑĤ":10635,"configured":10636,"ae":10637,"ino":10638,"through":10639,"Ġgrp":10640,"Ġdirective":10641,"Ġmultiprocessing":10642,"Ġinterpreted":10643,"CHECK":10644,")*(":10645,"Ġdp":10646,"Ġcookies":10647,")/(":10648,"Structure":10649,"hardware":10650,"(\"\"\"":10651,"BLOCK":10652,"ores":10653,"urface":10654,"itches":10655,"notation":10656,"ĠDirectory":10657,"Datetime":10658,"ĠPrepare":10659,"SUP":10660,"ifo":10661,"Ġmol":10662,"Ġdet":10663,"Ġcolormap":10664,"2014":10665,"Fields":10666,"Signature":10667,"/*":10668,"BER":10669,"mgr":10670,"spark":10671,"čĊĠĠĠĠ":10672,"ATTR":10673,"dists":10674,"voltage":10675,"/:":10676,"POR":10677,"Ġaf":10678,"Ġdw":10679,"Indi":10680,"Ġscroll":10681,"signals":10682,"GEX":10683,"Ġobserver":10684,"highlight":10685,"estimate":10686,"ĠFlag":10687,"kwarg":10688,"ĠOb":10689,"impact":10690,"Partition":10691,"Ġconcaten":10692,"Cd":10693,"OD":10694,"gzip":10695,"å¯":10696,"ĠComple":10697,"Ġbecomes":10698,"elt":10699,"``).":10700,"MAIN":10701,"afka":10702,"Ġlegacy":10703,"duplicates":10704,"stroke":10705,"aching":10706,"fromstring":10707,"buckets":10708,"Ġdiscard":10709,"sessions":10710,"while":10711,"Ġ\"/\"":10712,"secutive":10713,"Ġdecrypt":10714,"Ġconfigurations":10715,"Ġsubclasses":10716,"placeholder":10717,"mtp":10718,"Configure":10719,"TRA":10720,"hstack":10721,"ascript":10722,"nounce":10723,"Cal":10724,"Mod":10725,"TypeId":10726,"predictions":10727,"ĠAzure":10728,"Off":10729,"east":10730,"fed":10731,"iate":10732,"atively":10733,"Ġtup":10734,"Ġground":10735,"ARCH":10736,"DIS":10737,"Ġ'_'":10738,"Ġreports":10739,"Ġoverridden":10740,"Ġswap":10741,"define":10742,"etime":10743,"ippet":10744,"Ġintensity":10745,"Controller":10746,"percentile":10747,"LEVEL":10748,"Art":10749,"Zip":10750,"Ġsf":10751,"caling":10752,"Ġtrajectory":10753,"cri":10754,"dynam":10755,"iro":10756,"qte":10757,"Ġpseudo":10758,"inten":10759,"ĠVector":10760,"ĠComputes":10761,"PP":10762,"horizontal":10763,"jump":10764,"Ġflip":10765,"Ġ_('":10766,"ĠFlask":10767,"Ġ{}\\":10768,"comps":10769,"pkt":10770,"ĠDEBUG":10771,"udf":10772,"conversion":10773,"COD":10774,"Ġappears":10775,"Geometry":10776,"82":10777,"Double":10778,"æģ":10779,"Ġtell":10780,"alformed":10781,"reqs":10782,"Ġconsumed":10783,"Registry":10784,"Temporary":10785,"setText":10786,"192":10787,"Ġvoxel":10788,"Ada":10789,"wsgi":10790,"Ġ==========":10791,"kws":10792,"ĠBut":10793,"Identity":10794,"Ġconditional":10795,"Ġradians":10796,"rapping":10797,"Ġdialect":10798,"Ġgetter":10799,"Ġinterp":10800,"Weight":10801,"dummy":10802,"Ġsong":10803,"Ġcoef":10804,"vie":10805,"Ġ...]":10806,"Selection":10807,"Ġexecuting":10808,"Ġcategorical":10809,"TAG":10810,"needs":10811,"+=":10812,"inity":10813,"Ġemp":10814,"Ġsigning":10815,"Ġpkt":10816,"FD":10817,"elect":10818,"have":10819,"Ġbr":10820,"ĠSize":10821,"Ġcapt":10822,"Ġtransformer":10823,"coordinate":10824,"Ġmismatch":10825,"Redirect":10826,"Ġgrant":10827,"ĠFlow":10828,"loglevel":10829,"Ġentropy":10830,"}.'.":10831,"FORM":10832,"Bucket":10833,"baz":10834,"['__":10835,"ĠIS":10836,"fobj":10837,"Ġpaired":10838,"Ġimports":10839,"Ġcaption":10840,"graphy":10841,"firmware":10842,"ĠGoogle":10843,"Ġamplitude":10844,">')":10845,"typing":10846,"Ġbackwards":10847,"vox":10848,"Ġinternally":10849,"Ob":10850,"who":10851,"Ġvmin":10852,"subtype":10853,"latent":10854,"Ġgenerates":10855,"Orig":10856,"cannot":10857,"Ġele":10858,"ĠTH":10859,"ĠTCP":10860,"Retrieves":10861,"starts":10862,"Ġthumbnail":10863,"rend":10864,"ANT":10865,"Ġgrab":10866,"ACTION":10867,"Ġfitting":10868,"realpath":10869,"ĠAppend":10870,"Ġaffected":10871,"BS":10872,"dct":10873,"Ġcube":10874,"Ġmemo":10875,"ĠĠĠĠĠĠĠĠĠĠĠĠĠĠĠĠĠĠĠĠĠĠĠĠ":10876,"ĠRece":10877,"Ġchi":10878,"ockets":10879,"filt":10880,"snapshots":10881,"ĠOptionParser":10882,"ĠItem":10883,":<":10884,"Pattern":10885,"Ġdic":10886,"Ġcontrols":10887,"Ġcompiler":10888,"Ġassoc":10889,"transitions":10890,"qualifier":10891,"polygon":10892,"networks":10893,"ÑĢ":10894,"ĠAuto":10895,"lens":10896,"Ġunders":10897,"ĠRedis":10898,"ĠNDArray":10899,"BLE":10900,"oser":10901,"stmts":10902,"ĠALL":10903,"Ġyi":10904,"ĠMon":10905,"ERY":10906,"TENT":10907,"Ġindentation":10908,"Ġspecs":10909,"Ġazimuth":10910,"Basic":10911,"qos":10912,"Ġmechanism":10913,"='')":10914,"Named":10915,"Ġlongest":10916,"ĠGraphQL":10917,"Sort":10918,"Ġ204":10919,"weighted":10920,"riterion":10921,"Processing":10922,"Ġmarket":10923,"ardi":10924,"Ġwater":10925,"Ġask":10926,"METH":10927,"avascript":10928,"authentication":10929,"decla":10930,"Ġfunctools":10931,"ĠCache":10932,"Render":10933,"wp":10934,"Ġche":10935,"Ġperforming":10936,"199":10937,"Ġpolicies":10938,"Ġmock":10939,"Ġdists":10940,"ĠOptionally":10941,"Ġoptimize":10942,"Ġtriggers":10943,"Trace":10944,"!'":10945,"BIN":10946,"Qual":10947,"sink":10948,"ateway":10949,"Ġylabel":10950,"Init":10951,"Ġsignificant":10952,"Ġdifferences":10953,"]')":10954,"ĠSite":10955,"Insert":10956,"Ġsentences":10957,"timestamps":10958,"Lvl":10959,"Ġix":10960,"Ġfolders":10961,"Ġmutation":10962,"dip":10963,"spatial":10964,"ĠEvalu":10965,"pause":10966,"plays":10967,"authors":10968,"Ġtransforms":10969,"Ġsymmetric":10970,"isoformat":10971,"scaling":10972,"512":10973,"Down":10974,"secs":10975,"beled":10976,"astropy":10977,"ĠStatus":10978,"UTC":10979,"unctuation":10980,"bands":10981,"Arg":10982,"Ġcenters":10983,"Ġhowever":10984,"argsort":10985,"profiles":10986,"reading":10987,"ĠLay":10988,"Ġvim":10989,"Ġfastq":10990,"bond":10991,"dup":10992,"sf":10993,"Ġexclusive":10994,"ĠEngine":10995,"Ġmimetype":10996,"Ġmigration":10997,"imag":10998,"ĠĊĠĠĠĠĠĠĠĠĠĠĠĠĠĠĠĠĠĠĠ":10999,"Ġsit":11000,"Ġseason":11001,"Ġgiving":11002,"etches":11003,"Ġwidgets":11004,"optimize":11005,"precationWarning":11006,"PRI":11007,"Sto":11008,"Ġinferred":11009,"Ġtouch":11010,"Ġcomputing":11011,"ensities":11012,"SystemExit":11013,"Ġ'{}'\".":11014,"SPE":11015,"å½":11016,"-----":11017,"redge":11018,"ĠMissing":11019,"omic":11020,"Ġcolorbar":11021,"DOWN":11022,"Ġphoto":11023,"hdu":11024,"Ġgt":11025,"Ġcompared":11026,"ĠStorage":11027,"Ġzipfile":11028,"cedence":11029,"ĠFeature":11030,"AWS":11031,"eth":11032,"traffic":11033,"*',":11034,"desired":11035,"Ġslope":11036,"locs":11037,"RENT":11038,"ORM":11039,"Ġscenario":11040,"Ġdistinct":11041,"Ġviews":11042,"ĠOrder":11043,"Ġcircle":11044,"æģ¯":11045,"61":11046,"Must":11047,"qdm":11048,"Ġtensors":11049,"psi":11050,"Ġlinewidth":11051,"Expr":11052,"Asset":11053,"Ġ\\'%":11054,"Ġescaped":11055,"Cho":11056,"Ġinference":11057,"Ġ';":11058,"edu":11059,"ĠNV":11060,"occur":11061,"gramm":11062,"contig":11063,"Ġfinding":11064,"organization":11065,"specimens":11066,"ĠStringIO":11067,"overrides":11068,"Git":11069,"_\"":11070,"orient":11071,"(\"#":11072,"='/":11073,"paired":11074,"pyplot":11075,"portion":11076,"indexed":11077,"{}\\":11078,"Enum":11079,"Ġburn":11080,"Ġdatacenter":11081,"Ġ21":11082,"Ġprepend":11083,"mods":11084,"market":11085,"ĠTraceback":11086,"intenance":11087,"Folder":11088,"UAGE":11089,"{{":11090,"Ġfocus":11091,"Ġpc":11092,"Ġsg":11093,"Ġ28":11094,"Ġkm":11095,"**(":11096,"ĠShape":11097,"pes":11098,"strand":11099,"protected":11100,"combo":11101,"tolerance":11102,"oll":11103,"Repository":11104,"Ġlag":11105,"ĠUnknown":11106,"Ġacceptable":11107,"Ġprotobuf":11108,"ĠAST":11109,"ĠFAST":11110,"mouse":11111,"gle":11112,"Ġce":11113,"ĠStep":11114,"ĠRow":11115,"netloc":11116,"Starting":11117,"attempt":11118,"NET":11119,"İ·":11120,"Ġffi":11121,"-------+":11122,"compose":11123,"Setting":11124,"Ġbehaviour":11125,"Ġfresh":11126,"Ġfunctionality":11127,"ĠProtocol":11128,"Ġ'/'.":11129,"whitespace":11130,"Groups":11131,"OFF":11132,"Ġguest":11133,"Ġdeg":11134,"ĠNet":11135,"\"]),":11136,"ĠInstall":11137,"Ġbaseline":11138,"Ġpurposes":11139,"ipeline":11140,"Ġstudent":11141,"pic":11142,"ales":11143,"Ġfq":11144,"Ġ###":11145,"Ġ`%":11146,"**:":11147,"ducer":11148,"Ġrespond":11149,"ĠMinimum":11150,"decrypt":11151,"Ġdropout":11152,"('__":11153,"())[":11154,"Progress":11155,"visual":11156,"Ġrelations":11157,"Ġnic":11158,"ĠERR":11159,"ĠMongo":11160,"accuracy":11161,"Ġrunas":11162,"checker":11163,"Ġtherefore":11164,"Ġapplying":11165,"Iterable":11166,"ĠTemp":11167,"viz":11168,"inventory":11169,"','')":11170,"ĠApplication":11171,"Ġsecure":11172,"æĺ¯":11173,")>":11174,"]].":11175,"hicle":11176,"mathbf":11177,"âĢĻ":11178,"perf":11179,"ĠExp":11180,"iam":11181,"Ġwish":11182,"magn":11183,"Ġgid":11184,"Ġmav":11185,"Ġdoi":11186,"monic":11187,"Ġdomains":11188,"Ġletters":11189,"Ġpacked":11190,"Ġtruncate":11191,"Email":11192,"Ġtd":11193,"Ġci":11194,"ldp":11195,"gorithms":11196,"jections":11197,"deployment":11198,"Opt":11199,"Ġdm":11200,"Rep":11201,"__()":11202,"savefig":11203,"ĠWhat":11204,"CREATE":11205,"PH":11206,"Scan":11207,"WD":11208,"fold":11209,"sector":11210,"recent":11211,"Ġcritical":11212,"ĠNothing":11213,"ĠRET":11214,"ĠGPU":11215,"acters":11216,"linked":11217,"ENCE":11218,"observed":11219,"Ġdeletion":11220,"LEN":11221,"blocking":11222,"Ġ'.'.":11223,"structures":11224,"LAGS":11225,"2010":11226,"operational":11227,"Ġterminate":11228,"Tab":11229,"Ġ\".\"":11230,"ĠFinal":11231,"ĠThread":11232,"MAIL":11233,"Ġheading":11234,"anisotropy":11235,"epochs":11236,"Ġregardless":11237,"ietf":11238,"]_":11239,"ĊĊĠĠĠĠĠĠĠĠ":11240,"atleast":11241,"Ġdpi":11242,"olation":11243,"']])":11244,"ĠSto":11245,"Ġassessment":11246,"Counter":11247,"Ġlowercase":11248,"pability":11249,"Ġdom":11250,"ĠDraw":11251,"='\\":11252,"Ġcampaign":11253,"beam":11254,"Ġagg":11255,"Apply":11256,"Ġjoined":11257,"Ġsingular":11258,"Reply":11259,"Ġtranslated":11260,"EE":11261,"istant":11262,"Conv":11263,"ĠQtCore":11264,"/{}/":11265,"92":11266,"lator":11267,"Ġelt":11268,"Ġshuffle":11269,"latex":11270,"Ġflattened":11271,"whitelist":11272,"Summary":11273,"Received":11274,"quisition":11275,"FUN":11276,"Notification":11277,"Ġpairwise":11278,"Full":11279,"owns":11280,"codec":11281,"INVALID":11282,"ĠSaltInvocationError":11283,"033":11284,"ology":11285,"Ġsun":11286,"identifiers":11287,"ilation":11288,"Ġquoted":11289,"Encoder":11290,"62":11291,"eper":11292,"Ġposterior":11293,"INST":11294,"ARK":11295,"ĠDecimal":11296,"Chain":11297,"cern":11298,"GROUP":11299,"Null":11300,"emu":11301,"hd":11302,"maries":11303,"launch":11304,"Ġxlabel":11305,"alleli":11306,"NULL":11307,"reed":11308,"ana":11309,"ambig":11310,"Ġorth":11311,"ĠCA":11312,"Ġoutdir":11313,"åĩ":11314,"Ġinstructions":11315,"Ġsmallest":11316,"keh":11317,"='.":11318,"][-":11319,"Ġproducts":11320,"Ġensures":11321,"hw":11322,"endian":11323,"Ġpw":11324,"Ġtoday":11325,"Ġnear":11326,"Ġextras":11327,"Enter":11328,"Ġblacklist":11329,"bidden":11330,"hparam":11331,"kers":11332,"Ġcrit":11333,"Ġcamera":11334,"idle":11335,"compression":11336,"isation":11337,"Ġconvenience":11338,"ĠCH":11339,"INET":11340,"cmds":11341,"Ġsmart":11342,"consumed":11343,"clusion":11344,")].":11345,"CLO":11346,"First":11347,"GHT":11348,"fort":11349,"ĠEmpty":11350,"ĠBinary":11351,"assis":11352,"Ġskipping":11353,"relu":11354,"Ġscheduled":11355,"iator":11356,"confidence":11357,"Ġcoeffs":11358,"outs":11359,"Ġmodname":11360,"Ġtriangle":11361,"Filename":11362,"virt":11363,"\"]],":11364,"ĠForce":11365,"Ġ&=":11366,"saltenv":11367,"Ġapproach":11368,"{\"":11369,"Ġtot":11370,"backward":11371,"sentences":11372,"Ġdescend":11373,"legacy":11374,"Ġsnapshots":11375,"SUCCESS":11376,"Ġutf":11377,"camera":11378,"Ġair":11379,"Dest":11380,"slash":11381,"closing":11382,"corpus":11383,"zones":11384,"consistent":11385,"Ġkept":11386,"ĠSELECT":11387,"ĠMeasRec":11388,"CUR":11389,"tweet":11390,"Ġmt":11391,"Ġdetailed":11392,"Ġresol":11393,"webs":11394,"azimuth":11395,"Ġpul":11396,"Remote":11397,"cleot":11398,"NODE":11399,"Ġsqlite":11400,"Vert":11401,"guid":11402,"udio":11403,"æİ":11404,"Ġpm":11405,"Ġ#################################":11406,"ople":11407,"qt":11408,"ĠVolume":11409,"trained":11410,"conflict":11411,"gapic":11412,"755":11413,"roi":11414,"ĠTHE":11415,"stem":11416,"Analy":11417,"toolkit":11418,"Future":11419,"Ġprom":11420,"Ġsam":11421,"Ġlw":11422,"Ġ}}":11423,"Ġparsers":11424,"lipse":11425,"wikipedia":11426,"inspection":11427,"Mixin":11428,"gas":11429,"vt":11430,"erator":11431,"getenv":11432,"stringutils":11433,"Environment":11434,"herited":11435,"Ġdr":11436,"Ġbeg":11437,"quoted":11438,"imports":11439,"Ġeasy":11440,"Bot":11441,"GT":11442,"ĠSQ":11443,"ĠPl":11444,"RESS":11445,"ĠProgram":11446,"SOCK":11447,"Ċĉĉĉĉĉĉ":11448,"emp":11449,"Ġfriendly":11450,"Ġray":11451,"Ġprints":11452,"REGEX":11453,"rotate":11454,"æľī":11455,"¦Ĥ":11456,"reject":11457,"fopen":11458,"Ġ``.":11459,"moot":11460,"Debug":11461,"Ġdaily":11462,"MULTI":11463,"pitch":11464,"xff":11465,"Ã¡":11466,"Ġmgr":11467,"Ġhar":11468,"Ġsometimes":11469,"Ġopcode":11470,"Ġconnecting":11471,"Center":11472,"Take":11473,"bn":11474,"zA":11475,"dead":11476,"Ġny":11477,"ĠPos":11478,"licity":11479,"scriber":11480,"ĠConst":11481,"relations":11482,"ĠUseful":11483,"Signal":11484,"Ġstudy":11485,"xp":11486,"atalog":11487,"Ġwor":11488,"ĠReset":11489,"ĠEOF":11490,"startup":11491,"Permission":11492,"correction":11493,"Ċĉĉĉĉĉĉĉ":11494,"Term":11495,"EW":11496,"FN":11497,"Gen":11498,"eng":11499,"ĠSIG":11500,"capture":11501,"Ġclassifier":11502,"autif":11503,"ĠManage":11504,"ĠMetadata":11505,"itecture":11506,"kl":11507,"xaxis":11508,"ĊĊĠĠĠĠĠĠĠĠĠĠĠĠĠĠĠĠĠĠĠĠĠĠĠĠĠĠĠ":11509,"Ġping":11510,"coeffici":11511,"ĠDI":11512,"Ġunsigned":11513,"ĠWrit":11514,"Ġuserid":11515,"Export":11516,"polar":11517,"ProcessError":11518,"Ġbroken":11519,"Ġsucceed":11520,"onomy":11521,"åĮ":11522,"inplace":11523,"Ġpod":11524,"']).":11525,"traj":11526,"Ġadj":11527,"flows":11528,"StringIO":11529,"atern":11530,"Ġhooks":11531,"YPE":11532,"rating":11533,"Ġrecogn":11534,"lfile":11535,"Ġnotation":11536,"Ġresample":11537,"heading":11538,"Ġsymbolic":11539,"8601":11540,"=\"\"):":11541,"Axis":11542,")._":11543,"nost":11544,"declaration":11545,"Ġdecoding":11546,"Ġchip":11547,"ERT":11548,"queues":11549,"Multiple":11550,"]\\":11551,"peed":11552,"unix":11553,"parm":11554,"Ġcomposite":11555,"Ġopening":11556,"ENTI":11557,"graphs":11558,"ertificates":11559,"cron":11560,"cube":11561,"Ġreplic":11562,"Exists":11563,"Ġearly":11564,"Ġhardware":11565,"Github":11566,"Ġ`.":11567,"irth":11568,"Ġstops":11569,"APP":11570,"Ġyears":11571,"combined":11572,"ĠAssign":11573,")==":11574,"stors":11575,"Ġfac":11576,"Ġassuming":11577,"3333":11578,"Ġdistributions":11579,"expired":11580,"autiful":11581,"decl":11582,"Ġem":11583,"Ġrup":11584,"Ġchanging":11585,"occ":11586,"Ġcollector":11587,"Ġ['-":11588,"ĠSeq":11589,"vides":11590,"caps":11591,"Ġmoved":11592,"terminate":11593,"ĠDefine":11594,"!\".":11595,"+)":11596,"MAN":11597,"eye":11598,"once":11599,"fromtimestamp":11600,"2018":11601,"Ġutc":11602,"Ġconstructed":11603,"Ġcompletely":11604,"moothed":11605,"Card":11606,"brid":11607,"brain":11608,"ĠKeep":11609,"\")]":11610,"Ġdrawn":11611,"Util":11612,"Ġpow":11613,"):]":11614,"district":11615,"('=":11616,"Ġproxies":11617,"])):":11618,"Ġleader":11619,"waiting":11620,"pf":11621,"quit":11622,"tracker":11623,"Construct":11624,"Ġ----------------------------------------":11625,"ĠNOQA":11626,"tpl":11627,"ç¬":11628,"Ġopp":11629,"Ġdct":11630,"Ġoften":11631,"Ġsubtype":11632,"modname":11633,"counters":11634,"Soup":11635,"Ġmodifications":11636,"Ġolder":11637,"DT":11638,"Simple":11639,"ky":11640,"caption":11641,"Ġcontig":11642,"DEF":11643,",,,,":11644,"51":11645,"fwd":11646,"prom":11647,"yml":11648,"čĊĠ":11649,"deep":11650,"urses":11651,"Ġlearn":11652,"FileName":11653,"[^":11654,"wf":11655,"inet":11656,"Ġpackets":11657,"Conver":11658,"discard":11659,"Ġplaces":11660,"Runtime":11661,"Ġoptimal":11662,"Move":11663,"ominator":11664,"DX":11665,"frozen":11666,"stre":11667,"decay":11668,"Ġfine":11669,"pole":11670,"ĠVis":11671,"Ġsubtract":11672,"ĠJava":11673,"LAST":11674,"customer":11675,"ĠLoads":11676,"DULE":11677,"İ·åıĸ":11678,"=\\":11679,"PATTER":11680,"uids":11681,"Ġaa":11682,"unlink":11683,"that":11684,"Ġpag":11685,"UPDATE":11686,"hop":11687,"ering":11688,"arse":11689,"lazy":11690,"Ġorient":11691,"intersect":11692,"colorbar":11693,"markdown":11694,"Ġrandomly":11695,"Ġpolar":11696,"ä¸į":11697,"Utils":11698,"EVENT":11699,"Relation":11700,"Category":11701,">{":11702,"Ġconj":11703,"psd":11704,"transformer":11705,"PROTO":11706,"}\"'.":11707,"LABEL":11708,"\\.":11709,"pow":11710,"Ġattack":11711,"bsException":11712,"ĠDetermines":11713,"ĠIPython":11714,"Ġconverting":11715,"Ġrespective":11716,"Ġforeign":11717,"Got":11718,"Proto":11719,"LIMIT":11720,"Ġgoes":11721,"(\"\")":11722,"uric":11723,"Ġot":11724,"tabs":11725,"sqlite":11726,"asafe":11727,"{}_":11728,"Ġreflect":11729,"Ġreported":11730,"Ġinterpolate":11731,"Ġfo":11732,"raction":11733,"Ġconsensus":11734,"presence":11735,"Ġprimitive":11736,"Ġperforms":11737,"Ġsymlink":11738,"Ġhelpers":11739,"ĠNumPy":11740,"fabric":11741,"Area":11742,"GEN":11743,"Ð½":11744,"Ġwire":11745,"Ġsemi":11746,"Ġcomes":11747,"Short":11748,"lhs":11749,"mutation":11750,"Ġaio":11751,"Ġflo":11752,"LOB":11753,"secondary":11754,"wheel":11755,"also":11756,"anner":11757,"ĠFigure":11758,"NAMES":11759,"capital":11760,"managed":11761,"Ġwf":11762,"thumbnail":11763,"Ġupstream":11764,"ickness":11765,"ĠGenerator":11766,"ĠCollection":11767,"ĠSaltCloudSystemExit":11768,"Left":11769,"credential":11770,"Ġ\"$":11771,"Regex":11772,"Ġ2000":11773,"disp":11774,"Ġrefs":11775,"Ġcommunic":11776,"Append":11777,"guide":11778,"builtin":11779,"Body":11780,"RM":11781,"RU":11782,"reversed":11783,"Ġ\"&":11784,"Ġtornado":11785,"ĠMove":11786,";\\":11787,"every":11788,"grant":11789,"Ġcle":11790,"resample":11791,"calibration":11792,"Ġneither":11793,"ĠInst":11794,"community":11795,"Ġmaintain":11796,"Ġtruth":11797,"Ġcombinations":11798,"SETTING":11799,"Ġaltitude":11800,"Ġsolar":11801,"fileno":11802,"Writ":11803,"Ġnm":11804,"ras":11805,"('\\\\":11806,"Ġexe":11807,"Ġdeferred":11808,"preprocess":11809,"pywbem":11810,"Inf":11811,"stddev":11812,"leton":11813,"rollment":11814,"Ġplaced":11815,"Abstract":11816,"Ġring":11817,"Ġlogfile":11818,"168":11819,"aneous":11820,"Ġatomic":11821,"Ġpurpose":11822,"ĠEntry":11823,"LANGUAGE":11824,"ldap":11825,"DOUT":11826,"Like":11827,"wire":11828,"ĊĠĠĠĠĠĠĠĠĠĠĠĠĠĠĠĠĊĠĠĠĠĠĠĠĠĠĠĠĠĠĠĠ":11829,"Ġreshape":11830,"plate":11831,"printer":11832,"extras":11833,"fullname":11834,"Ġrectangle":11835,"æĪ·":11836,"UNKNOWN":11837,"=\",":11838,"Clean":11839,"instr":11840,"meter":11841,"Ġinventory":11842,"__),":11843,"ifies":11844,"ORDER":11845,"ĠAccept":11846,"]})":11847,"shif":11848,"Ġdirected":11849,"invert":11850,"oned":11851,"shake":11852,"Ġ{}.":11853,"ORI":11854,"ĠContainer":11855,"Ġphot":11856,"Ġlatent":11857,"Enable":11858,"Ġpkgs":11859,"Events":11860,"handled":11861,"Ġtranspose":11862,"ĊĉĉĠĠĠ":11863,"observations":11864,"Ġconsume":11865,"57":11866,"Ġmc":11867,"['--":11868,"{}.":11869,"centric":11870,"lashes":11871,"individual":11872,"transforms":11873,"treatment":11874,"CN":11875,"IMAGE":11876,"âķ":11877,"Ġdrive":11878,"colour":11879,"Ġstable":11880,"Reset":11881,"ĠPay":11882,"ĠPDB":11883,"ĠMultiple":11884,"litlet":11885,"explicit":11886,"Ġanalyses":11887,">/":11888,"Certificate":11889,"NONE":11890,"]\",":11891,"mic":11892,"wv":11893,"xfer":11894,"oting":11895,"ĠSymbol":11896,"Ġvrf":11897,"Ġfilt":11898,"Ġimportlib":11899,"ibl":11900,"bd":11901,"chast":11902,"Ġdeclaration":11903,"(\">":11904,"providers":11905,"ĠBit":11906,"soup":11907,"chedul":11908,"correlation":11909,"Ġwhitelist":11910,"Ġinstantiate":11911,"Icon":11912,"Ġfirm":11913,"Ġwhatever":11914,"Ġunchanged":11915,"{},":11916,"Ġtransactions":11917,"Ġtwice":11918,"OLD":11919,"OUTPUT":11920,"hg":11921,"Ġholds":11922,"ĠFuture":11923,"agents":11924,"Conf":11925,"manent":11926,"flask":11927,"Ġexpansion":11928,"Ġshows":11929,"Ġtrees":11930,"Ġreuse":11931,"yperedge":11932,"Ġrd":11933,"ĠUP":11934,"TemporaryFile":11935,"ĠNVML":11936,"Ġcoerce":11937,"ĠPut":11938,"Ġlogits":11939,"Ġ`{":11940,"Ġpagin":11941,"ĠMUST":11942,"Ġobjs":11943,"æĸĩä»¶":11944,"æŀľ":11945,"ays":11946,"afe":11947,"dget":11948,"ĠFrame":11949,"shuffle":11950,"ivari":11951,"Ġ``_":11952,"Ġplate":11953,"Ġauthors":11954,"Ġ\",\".":11955,"residual":11956,"(.*":11957,"Clear":11958,"pu":11959,"Ġconsecutive":11960,"Ġfiletype":11961,"Ġys":11962,"ONT":11963,"computed":11964,"KEYS":11965,"Ġtypically":11966,"Ġamong":11967,"VS":11968,"mas":11969,"ĠQA":11970,"passwd":11971,"overla":11972,"Encoding":11973,"Ġinsertion":11974,"ĠEnable":11975,"æĪĲ":11976,"bold":11977,"ä¹":11978,"Ġlhs":11979,"Ġgaussian":11980,"Ġproviding":11981,"Ġyes":11982,"subs":11983,"arer":11984,"pubkey":11985,"Statement":11986,"Ġseparators":11987,"Fl":11988,"egg":11989,"flip":11990,"deprecated":11991,"preferred":11992,"ĠJust":11993,"Ġplaintext":11994,"certs":11995,"Headers":11996,"replic":11997,"Ġprincipal":11998,"CLIENT":11999,"`.\"\"\"":12000,"tumor":12001,"Ġiv":12002,"look":12003,"Ġgr":12004,"Replace":12005,"ĠWS":12006,"ĠSection":12007,"Ġlimited":12008,"Ġfailures":12009,"Features":12010,"ISTORY":12011,"ĠMagRec":12012,"PORTED":12013,"aco":12014,"æĶ":12015,"ĠOpt":12016,"LOCAL":12017,"ĊĠĠĠĠĠĠĠĠĠĠĠĠĠĠĠĠĠĠĠĠĠĠĠĠĠĠĠĠĠĠĠĠĠĠĠĠĠĠĠĠĠĠĠĠĠĠĠĠĠĠĠĠĠĠĠĠĠĠĠĠ":12018,"Iterator":12019,"Err":12020,"GG":12021,"ISO":12022,"neur":12023,"episode":12024,"abbix":12025,"Ġsemant":12026,"Ġalbum":12027,"isted":12028,"fee":12029,"weep":12030,"facet":12031,"Ġtitles":12032,"specification":12033,"Ġ2017":12034,"Ġoccurrences":12035,"orbit":12036,"ullable":12037,"ĠSame":12038,"Ġpassphrase":12039,"transactions":12040,"sampled":12041,"POSE":12042,"Ġinstallation":12043,"ĠDecorator":12044,"]|":12045,"fingerprint":12046,"rie":12047,"provenance":12048,"Ġunset":12049,"Ġcomputes":12050,"Ġsearching":12051,"CONT":12052,"Ġmeasured":12053,"blast":12054,"yd":12055,"iters":12056,"Ġweld":12057,"illed":12058,"odata":12059,"Ġxx":12060,"tsv":12061,"posix":12062,"}\\'":12063,"Variant":12064,"hr":12065,"human":12066,"onto":12067,"('',":12068,"Ġrt":12069,"Ġalg":12070,"addrs":12071,"ĠHDF":12072,"requester":12073,"ĠSecond":12074,"ĠThey":12075,"ĠWhere":12076,"interactive":12077,"Byte":12078,"Ġcycles":12079,"AttributeError":12080,"Ġrecipients":12081,"Calculates":12082,"Ign":12083,"gray":12084,"lue":12085,"å°":12086,"Ġrecognized":12087,"Ġshe":12088,"Ġhunt":12089,"spawn":12090,"Ġcauses":12091,"Ġauthorized":12092,"è¡¨":12093,"Ġblueprint":12094,"BA":12095,"invoke":12096,"Ġdn":12097,"())))":12098,"ages":12099,"scr":12100,"ĠBY":12101,"Ġnamedtuple":12102,"Ġcircuit":12103,"diagonal":12104,"Ġsmoothing":12105,"RDF":12106,"UUID":12107,"stick":12108,"Ġstroke":12109,"ĠDes":12110,"qualified":12111,"CONST":12112,"Ġrealm":12113,"ĠZero":12114,"Ġpmagplotlib":12115,"torch":12116,"Driver":12117,"was":12118,"ĠFOR":12119,"ĠRetrieves":12120,"ĠMD":12121,"Ġcoll":12122,"Ġunix":12123,"TIVE":12124,"Ġportal":12125,"CONTENT":12126,"Ġautomatic":12127,"Ġrecursion":12128,"Calcul":12129,"ILED":12130,"TM":12131,"iden":12132,"chip":12133,"viations":12134,"ĠCannot":12135,"Ġunsupported":12136,"ĠLambda":12137,"Ġoverwritten":12138,"Ġpointing":12139,"Provider":12140,"...\"":12141,"Ġstyles":12142,"Ġ123":12143,"planation":12144,"Price":12145,"WIN":12146,"inject":12147,"Ġfid":12148,"Ġfpath":12149,"Ġreward":12150,"called":12151,"ternet":12152,"Ġclassname":12153,"Shk":12154,"Ġdropped":12155,"Ġfluxes":12156,"ĠERROR":12157,"Credentials":12158,"rates":12159,"stype":12160,"Ġprt":12161,"Ġ''),":12162,"\")):":12163,"Public":12164,"firmed":12165,":]))":12166,"Ġcron":12167,"ĠFl":12168,"pache":12169,"Ġ300":12170,"MEN":12171,"Ġcmds":12172,"ĠSetup":12173,"schemas":12174,"ĠBytes":12175,"Ġfirmware":12176,"ock":12177,"trees":12178,"vp":12179,"Ġgain":12180,"ĠCor":12181,"Ġpaper":12182,"ĠGen":12183,"Ġgrammar":12184,"Ġthrown":12185,"Depend":12186,"gh":12187,"yr":12188,"urlopen":12189,"Ġmarginal":12190,"Ġqubit":12191,"Ġ${":12192,"ĠMAV":12193,"SCRIPT":12194,"crc":12195,"hold":12196,"Ġwcs":12197,"ĠTree":12198,"Ġalarm":12199,"mini":12200,"Ġserialization":12201,"Ġclustering":12202,"Ġ2018":12203,"Rows":12204,"Ġmodifier":12205,"Termin":12206,"({})":12207,"Long":12208,"Ġfr":12209,"ĠNS":12210,"Ġmarkdown":12211,"Ġconvergence":12212,"ä¿¡":12213,"uricreate":12214,"Ġimt":12215,"ĠLinux":12216,"Ġjid":12217,"Ġsubs":12218,"Ġsubjects":12219,"Ġscales":12220,"Ġpotentially":12221,"\"``":12222,"?\\":12223,"Ġcmp":12224,"Errors":12225,"pread":12226,"Ġenforce":12227,"Expi":12228,"ĠJson":12229,"2016":12230,"symlink":12231,"wit":12232,"arb":12233,"Ġsess":12234,"assembly":12235,"ĠPID":12236,"ĠEstim":12237,"workdir":12238,"Ġdirections":12239,"Ġdisconnect":12240,"Ġintercept":12241,"strained":12242,"rollback":12243,"Ġregexp":12244,"DK":12245,"Lines":12246,"libs":12247,"ĠTotal":12248,"Ġfileobj":12249,"material":12250,"forum":12251,"Ġsends":12252,"Ġbindings":12253,"finalize":12254,"Ġpeaks":12255,"Cor":12256,"dw":12257,"anza":12258,"ĠFix":12259,"ĠME":12260,"Ġindexer":12261,"rigger":12262,"discrete":12263,"Ġverified":12264,"Ġoccurrence":12265,"Some":12266,"drive":12267,"nk":12268,"Ġcsr":12269,"upd":12270,"Ġ10000":12271,"Ġ*/":12272,"Ġ```":12273,"abbreviation":12274,"REE":12275,"newline":12276,"Ġsphere":12277,"closure":12278,"delt":12279,"2017":12280,"Ġeffects":12281,"Ġtiles":12282,"ĠBecause":12283,"Ġartifacts":12284,"Poly":12285,"Language":12286,"will":12287,"itivity":12288,"proof":12289,"psa":12290,"Conn":12291,"Ġperiodic":12292,"Ġexpressed":12293,"Ġqueues":12294,"ASK":12295,"Ġreplication":12296,"jinja":12297,"Ġbrain":12298,"Ġconstruction":12299,"Ġquadratic":12300,"FIL":12301,"Ġnormally":12302,"NotSet":12303,"Ġindicated":12304,"Ġearlier":12305,"alogs":12306,"ĠProperty":12307,"PACK":12308,"cart":12309,"dk":12310,"iff":12311,"tmpl":12312,"âĸ":12313,"kes":12314,"Ġsector":12315,"Ġlvl":12316,"Ġholding":12317,"ĠBig":12318,"Ġsubmitted":12319,"Ġshouldn":12320,"Ġtransitions":12321,"coroutine":12322,"Ġsaf":12323,"writerow":12324,"Media":12325,"Cdlib":12326,")``.":12327,"å¾":12328,"losses":12329,"')])":12330,"tections":12331,"ĠSM":12332,"Details":12333,"Ġgraphs":12334,"Ġfluid":12335,"Loading":12336,"SERVICE":12337,"arter":12338,"ately":12339,"Ġ(?":12340,"abstract":12341,"Ġminions":12342,"Ġinteractions":12343,"ĠCond":12344,"1111":12345,"Ġcalculating":12346,"Ġsimulated":12347,"Height":12348,"languages":12349,"Ġdistributed":12350,"čĊĠĠĠĠčĊĠĠĠ":12351,"Release":12352,"Ġraising":12353,"Ġcontrib":12354,"minus":12355,"ĠStandard":12356,"Ġframework":12357,"Ġlocked":12358,"ĠTransfer":12359,"Ġrespons":12360,"SCHEMA":12361,"hh":12362,"Ġpsd":12363,"urable":12364,"))),":12365,"ĠSum":12366,"texts":12367,"addHandler":12368,"Ġpainter":12369,"Ġquit":12370,"annotate":12371,"ĠRuns":12372,"Ġfrac":12373,"cumsum":12374,"ĠStructure":12375,"autifulSoup":12376,"SyntaxError":12377,"TU":12378,"ico":12379,"tlen":12380,"adm":12381,"INPUT":12382,"')).":12383,"CONNE":12384,"ĠCollect":12385,"ĠClose":12386,"81":12387,"citation":12388,"Ġmn":12389,"ĠTw":12390,"consensus":12391,"Ġgaps":12392,"ĠSV":12393,"Ġva":12394,"Ġdiscovery":12395,"rupted":12396,"Ġseparately":12397,"circle":12398,"Scale":12399,"Ġff":12400,"ĠAut":12401,"ĠStack":12402,"Ġpropag":12403,"ĠFull":12404,"boost":12405,"Ġjava":12406,"Ġ3600":12407,"ystemd":12408,"Decimal":12409,"servable":12410,"Arguments":12411,"Ġutility":12412,"gal":12413,"ggreg":12414,"tions":12415,"}</":12416,"łģ":12417,"asses":12418,"song":12419,"Product":12420,"Polygon":12421,"éĹ´":12422,"FACT":12423,"Life":12424,"('$":12425,"Require":12426,"Ġdefer":12427,"Generates":12428,"ĠIdentifier":12429,"Ġconsistency":12430,"patches":12431,"Ġfault":12432,"Ġtimed":12433,"inality":12434,"Decorator":12435,"purpose":12436,".{":12437,"/{}'.":12438,"trunk":12439,"ĠâĶ":12440,"Ġbridge":12441,"ĠTI":12442,"intro":12443,"ĠSI":12444,"nthe":12445,"ĠRequires":12446,"aven":12447,"populate":12448,"Ġworksheet":12449,"Ġspawn":12450,"antiate":12451,"+')":12452,"Cancel":12453,"dent":12454,"sz":12455,"ymin":12456,"ĠTABLE":12457,"Ġprovision":12458,"Ġbyref":12459,"Ġstartup":12460,"ĠQgs":12461,"ĠUnit":12462,"ĠWhich":12463,"ĠHeader":12464,"Ġcopies":12465,"Geo":12466,"evidence":12467,"kn":12468,"Ġtpl":12469,"Produce":12470,"stopped":12471,"åĲį":12472,"Sync":12473,"]_.":12474,"wide":12475,"yaxis":12476,"secho":12477,"vect":12478,"ets":12479,"Ġresume":12480,"Ġknot":12481,"Ġcontexts":12482,"ularity":12483,"ĠĠĠĠĠĠĠĠĠĠĠĠĠĠĠĠĠĠĠĠĠĠĠĠĠĠĠĠĠĠĠĠĠĠĠĠ":12484,"hesis":12485,"fetchall":12486,"Ġexpectation":12487,"('.')[":12488,"aternion":12489,"far":12490,"Ġinclusive":12491,"Ġretcode":12492,"Ġlease":12493,"Idx":12494,"predicted":12495,"Ġcreds":12496,"ĠFailed":12497,"DAT":12498,"cx":12499,"elastic":12500,"hance":12501,"qm":12502,"||":12503,"Ġdense":12504,"Ġ`'":12505,"userid":12506,"=====":12507,"cdlib":12508,"shortcut":12509,"Attach":12510,"čĊĠĠĠĠĠĠĠĠĠĠĠĠčĊĠĠĠĠĠĠĠĠĠĠĠ":12511,"Dim":12512,"ycle":12513,"Ġreview":12514,"touch":12515,"provided":12516,"Ġ`_":12517,"Ġtranslations":12518,"Activity":12519,"Done":12520,"æĮ":12521,"segs":12522,"Ġbon":12523,"could":12524,"Ġprocedure":12525,"usic":12526,"Ġ`{}":12527,"Ġalive":12528,"ĊĠĠĠĠĠĠĠĠĠĠĠĠĠĠĠĠĠĠĠĠĠĠĠĠĠĠĠĠĠĠĠĠĠĠĠĠĠĠĠĠĠĠĠĠĠĠĠĠĠĠĠĠĠĠĠĠĠĠĠĠĠ":12529,"ä¸ĭ":12530,"Ġapplications":12531,"Ġanalyze":12532,"ivariate":12533,"xFF":12534,"ingu":12535,"Ġcurves":12536,"ĠDatabase":12537,"Ġrisk":12538,"BL":12539,"decess":12540,"ito":12541,"Ġetag":12542,"Ġdh":12543,"ĠDATA":12544,"allery":12545,"TICAL":12546,"Ġ2014":12547,"PyCdlib":12548,"attachments":12549,"notifications":12550,"Dump":12551,"Ġcx":12552,"ĠSingle":12553,"ĠBatch":12554,"Ġinterpreter":12555,"pexpect":12556,"iblings":12557,"ĠCate":12558,"Ġpycdlib":12559,"Ġspans":12560,"handles":12561,"Ġmiddleware":12562,"Commit":12563,"GithubObject":12564,"Tr":12565,"WR":12566,"[%":12567,"oDB":12568,"Ġdtypes":12569,"Integr":12570,"tokenize":12571,"DEN":12572,"ENV":12573,"ximal":12574,"Library":12575,"Hz":12576,"Ġunt":12577,"onym":12578,"alone":12579,"Ġwheel":12580,"uns":12581,"toc":12582,"collector":12583,"Ġ[]:":12584,"åı¯":12585,"Ġpycdlibexception":12586,"=.":12587,"La":12588,"pment":12589,"è´":12590,"mpp":12591,"ĠInsert":12592,"Ġminim":12593,"Ġtrade":12594,"Ġprivile":12595,"characters":12596,"Ġcalculations":12597,"svc":12598,"Ġcorrected":12599,"5678":12600,"SERT":12601,"Private":12602,"Boolean":12603,"Upload":12604,"intable":12605,"Ġdelim":12606,"molecule":12607,"Ġweather":12608,"ĠLookup":12609,"throat":12610,"'%(":12611,"Evalu":12612,"dpi":12613,"çłģ":12614,"Ġfft":12615,"Ġther":12616,"ĠCOL":12617,"Ġcharge":12618,"Ġlibraries":12619,"Constants":12620,"dtypes":12621,"uce":12622,"Ġstoring":12623,"Ġhp":12624,"Ġgc":12625,"orted":12626,"Ġregression":12627,"DESCRIPTION":12628,"Coordin":12629,"spectrum":12630,"Ġuint":12631,"Ġproduces":12632,"Ġrad":12633,"ĠPUR":12634,"META":12635,"Ġparticipant":12636,"ĠCounter":12637,"LAl":12638,"multiply":12639,"'\")":12640,"EMP":12641,"Single":12642,"dna":12643,"Ġtiming":12644,"adjac":12645,"REAM":12646,"IOError":12647,"Ġseqs":12648,"LAlchemy":12649,"Ġfetched":12650,"uris":12651,"Ġsubplot":12652,"Ġperms":12653,"Ġinitializer":12654,"SCA":12655,"Ġmanagement":12656,"Ġepisode":12657,"WRI":12658,"away":12659,"Ġctype":12660,"problems":12661,"Ġsetter":12662,"Ġ`(":12663,"rsa":12664,"Ġgeome":12665,"study":12666,"¦ģ":12667,"Ġdiameter":12668,"ĠVirtual":12669,"Arch":12670,"ordering":12671,"visibility":12672,"TERS":12673,"Processor":12674,"BytesIO":12675,"*)":12676,"41":12677,"Callable":12678,"LF":12679,"vfs":12680,"xd":12681,"Edge":12682,"selves":12683,"ĠREQUIRED":12684,"cas":12685,"dT":12686,"alphabet":12687,"Ġblast":12688,"listing":12689,"(\":\")":12690,"ĠEN":12691,"Ġextraction":12692,"Determine":12693,"Diff":12694,"Ġqualified":12695,"blueprint":12696,"Ġthresholds":12697,"$\",":12698,"bid":12699,"eig":12700,"yellow":12701,"prof":12702,"{}]":12703,"Ġattachments":12704,"Corre":12705,"oney":12706,"ĠPe":12707,"Ġcodec":12708,"finder":12709,"ĠFinds":12710,"Ġreplica":12711,"Ġeasier":12712,"Ġwebsocket":12713,"=(),":12714,"Ġassociate":12715,"*'":12716,"Master":12717,"Pick":12718,"WID":12719,"Ġmtime":12720,"Ġproceed":12721,"Ġnoinspection":12722,"Too":12723,"bust":12724,"tan":12725,"Ġcas":12726,"Ġsubdomain":12727,"foreign":12728,"Ġstages":12729,"student":12730,"Ġhydpy":12731,"dag":12732,"fork":12733,"rink":12734,"included":12735,"Ġctrl":12736,"quential":12737,"ĠPackage":12738,"pypi":12739,"mock":12740,"ĠWrap":12741,"Ġtech":12742,"Ġperf":12743,"Ġquad":12744,"simp":12745,"online":12746,"arct":12747,"utter":12748,"Ġ\"%(":12749,"SPON":12750,"Ġcreator":12751,"Ġé":12752,"Ġft":12753,"Ġinds":12754,"compact":12755,"itertools":12756,"Segments":12757,"Setup":12758,"MODULE":12759,"ĠPerforms":12760,"vlc":12761,"Curve":12762,"ĠElementTree":12763,"Ġvocabulary":12764,"Ġoverlapping":12765,"Ġslots":12766,"ignored":12767,"Ġcommunity":12768,"explo":12769,"Ġconnectivity":12770,"lons":12771,"Ġconvolution":12772,"Distribution":12773,"frequencies":12774,"åĨ":12775,"Ġtopo":12776,"ĠPA":12777,"Ġestimation":12778,"expire":12779,"SF":12780,"sas":12781,"ĠTYPE":12782,"aspect":12783,"Ġpause":12784,"IDE":12785,"translations":12786,"ĠDomain":12787,"Ġdecision":12788,"expiration":12789,"ĠTri":12790,"exclusive":12791,"ĠEmail":12792,"Ġundefined":12793,"minions":12794,"Ġsubparsers":12795,"daily":12796,"Validation":12797,"Ġxyz":12798,"Ġfrozenset":12799,"OPEN":12800,"rg":12801,"suggest":12802,"umin":12803,"ĠTop":12804,"Restricted":12805,"Ġrl":12806,"Ġlam":12807,"placing":12808,"INSERT":12809,"Ġtrust":12810,"Ġzones":12811,"writel":12812,"RAY":12813,"Ġpagination":12814,"NaN":12815,"Ġpatches":12816,"__')":12817,"Ġinteraction":12818,"Adding":12819,"extractor":12820,"reports":12821,"Ġactivate":12822,"Ġorders":12823,"Ġtriple":12824,"Right":12825,"elapsed":12826,"ture":12827,"Ġstra":12828,"abi":12829,"Ġacceler":12830,"Ġrecording":12831,"truth":12832,"}{\\":12833,"Feed":12834,"SpecRec":12835,"Worker":12836,"DL":12837,"gps":12838,"ucli":12839,"vmin":12840,"parsing":12841,"asn":12842,"isect":12843,"ĠCur":12844,"SED":12845,"signing":12846,"Ġportion":12847,"masks":12848,"cbc":12849,"clarations":12850,"ĠSignal":12851,"bz":12852,"via":12853,"Ġvalidity":12854,"Ġ42":12855,"ALT":12856,"Ġdfs":12857,"----------------------------":12858,"Ġpublisher":12859,"Ġtruncated":12860,"Skipping":12861,">%":12862,"rna":12863,"čĊĠĠĠĠĠ":12864,"macs":12865,"traverse":12866,"Ġtexts":12867,"Ġstatistic":12868,"Ġassociation":12869,"Ġpopulated":12870,"imshow":12871,"management":12872,"Ġvoice":12873,"ĠPURPOSE":12874,"Break":12875,"gather":12876,"wk":12877,"Ġnatural":12878,"Ġlost":12879,"Ġmagn":12880,"folio":12881,"Inst":12882,"Std":12883,"Ġprefixed":12884,"ĠProfile":12885,"æķ°æį®":12886,"PD":12887,"await":12888,"Ġsay":12889,"lain":12890,"Ġ>,":12891,"SSH":12892,"serving":12893,"Records":12894,"lipsis":12895,"Ġjoint":12896,"review":12897,"Ġlr":12898,"Ġprefer":12899,"ĠDeletes":12900,"Consts":12901,"authenticate":12902,"Ð¾Ð":12903,"pst":12904,"elded":12905,"('@":12906,"Ġvary":12907,"oping":12908,"matic":12909,"ENABLE":12910,"overall":12911,"sampler":12912,"Ġtracking":12913,"tracks":12914,"PASSWORD":12915,"Press":12916,"SW":12917,"ĠAL":12918,"Ġproof":12919,"ĠReport":12920,"within":12921,"Ġanyway":12922,"Ġgrouping":12923,"Counts":12924,"Machine":12925,"OIN":12926,"Route":12927,"idity":12928,"ĠFilename":12929,"ĠMain":12930,"Ġled":12931,"Prop":12932,"discovery":12933,"Ġmanual":12934,"Ġphrase":12935,"Ġcorr":12936,"Ġpermutation":12937,"Ġconflicts":12938,"?',":12939,"lw":12940,"xmax":12941,"Ġfout":12942,"Ġincomplete":12943,"datacenter":12944,"baseline":12945,"})'.":12946,"UNI":12947,"tmpdir":12948,"Ġbuttons":12949,"ĠSimilar":12950,"EMAIL":12951,"rms":12952,"Ġmention":12953,"spot":12954,"Ġminimal":12955,"Ġpercentile":12956,"Ġapproximation":12957,")[:":12958,"PAGE":12959,"hunt":12960,"album":12961,"Ġpv":12962,"Ġomit":12963,"ĠTurn":12964,"dialect":12965,"jectories":12966,"ĠCons":12967,"ĠDeprecationWarning":12968,"Ġchunksize":12969,"71":12970,"cats":12971,"ssian":12972,"ĠTwo":12973,"Ġgather":12974,"ĠSET":12975,"genus":12976,"ClassType":12977,"Ġtzinfo":12978,"codon":12979,"PATTERN":12980,"GING":12981,"air":12982,"ĠSH":12983,"Ġ==================================":12984,"dated":12985,"indx":12986,"__':":12987,"Ġmatcher":12988,"Ġpriv":12989,"Ġloops":12990,"Checked":12991,"cases":12992,"(':',":12993,"misc":12994,">'.":12995,"mst":12996,"ĠKeys":12997,"Ġhi":12998,"Ġfunctional":12999,"buses":13000,"={}):":13001,"ĠHeat":13002,"Condition":13003,"\"',":13004,"-',":13005,"tensors":13006,"including":13007,"Ġallocated":13008,"0001":13009,"posal":13010,"([-":13011,"Ġ'%(":13012,"assoc":13013,"Ġhasher":13014,"subscriptions":13015,"HH":13016,"Ġtcp":13017,"Ġdu":13018,"asm":13019,"owel":13020,"wav":13021,"Reading":13022,"raining":13023,"radiance":13024,"Wrong":13025,"city":13026,"season":13027,"Ġsynchron":13028,"Ġgradients":13029,"decoded":13030,"Ġwanted":13031,"alleles":13032,"Subject":13033,"ĠWritten":13034,"Bus":13035,"dll":13036,"har":13037,"paragraph":13038,"assemble":13039,"Ġtokenize":13040,"Ġqry":13041,"implicit":13042,"carded":13043,"tlene":13044,"Ġcaching":13045,"Ġnaming":13046,"asyncio":13047,"undant":13048,"Ġensemble":13049,"Ġprepared":13050,"Keyboard":13051,"expanded":13052,"medium":13053,"ĠComponent":13054,"products":13055,"Ġcircular":13056,"Ġblobxfer":13057,"'``,":13058,"Ġacl":13059,"aln":13060,"Ġrepl":13061,"Ġgf":13062,"Ġprecedence":13063,"ARGET":13064,"Ġscr":13065,"PathSpec":13066,"Ġvirtualenv":13067,"Help":13068,"Ġtranspa":13069,"è¡Į":13070,"OO":13071,"Snapshot":13072,"æŃ":13073,"chem":13074,"wavelength":13075,"SEC":13076,"circuit":13077,">\",":13078,"?)":13079,"PK":13080,"ham":13081,"Ġstub":13082,"ĠCluster":13083,"mirror":13084,"Ġparticle":13085,"ListType":13086,"Ġbuilds":13087,"Ġcentral":13088,"Ġnetloc":13089,"å¹":13090,"Ġpres":13091,"Ġbands":13092,"adir":13093,"Ġlmax":13094,"Ġgpg":13095,"ĠCould":13096,"Ġlead":13097,"coro":13098,"=[]):":13099,"Ġpolygons":13100,"auge":13101,"Percent":13102,"mimetype":13103,"middleware":13104,"Fit":13105,"rection":13106,"Ġcity":13107,"chk":13108,"ĠHISTORY":13109,"REL":13110,"RequestException":13111,"lane":13112,"ĠFileNotFoundError":13113,"Ġsimpli":13114,"migration":13115,"Ġancestor":13116,"brief":13117,",(":13118,"Case":13119,"Fill":13120,"Imp":13121,"NORM":13122,"hc":13123,"exponent":13124,"Ġpara":13125,"Ġendian":13126,"ĠUt":13127,"Ġjinja":13128,"Ġtested":13129,"Ġignoring":13130,"Ġ2019":13131,"Ġdrawing":13132,"friendly":13133,"ĠTab":13134,"('~":13135,"ubic":13136,"ideo":13137,"ARG":13138,"ĠCalls":13139,"Adapter":13140,"Hook":13141,"ju":13142,"wargs":13143,"Ġinfinite":13144,"asp":13145,"Ġhot":13146,"Ġ[<":13147,"preference":13148,"------------------------":13149,"versation":13150,"Ġannotated":13151,"snr":13152,"ĠQtGui":13153,"requirement":13154,"ĠUnicodeDecodeError":13155,"ĠMedia":13156,"91":13157,"Estim":13158,"jax":13159,"divide":13160,"erson":13161,"derived":13162,"Ġnewer":13163,"Ġchecker":13164,"Ġsubj":13165,"bsolute":13166,"Dev":13167,"frag":13168,"ĠShort":13169,"Ġrestricted":13170,"ĠSystemExit":13171,"ĠSNMP":13172,"Ġspherical":13173,"Bank":13174,"Syn":13175,"TC":13176,"ilo":13177,"zilla":13178,"Ġodd":13179,"Ġ'='":13180,"ipment":13181,"fake":13182,"osa":13183,"MET":13184,"Ġfullname":13185,"Serialize":13186,"Ġuncertainty":13187,"\"')":13188,"<=":13189,"already":13190,"cture":13191,"Ġ\":\"":13192,"Ġdeleting":13193,"Ġalter":13194,"trade":13195,"...'":13196,"Ġremoval":13197,"Ġways":13198,"bm":13199,"uing":13200,"chmod":13201,"Ġpreference":13202,"Ġseek":13203,"Ġimprove":13204,"ĠAttempt":13205,"urst":13206,"isnull":13207,"amaz":13208,"ĠĠĠĠĠĠĠĠĠĠĠĠĠĠĠĠĠĠĠĠĠĠĠĠĠĠĠĠĠĠ":13209,"Ġintent":13210,"Ġcontribution":13211,"***":13212,"directed":13213,"Ġ','":13214,"Ġdecorate":13215,"MENTS":13216,"................":13217,"TF":13218,"lims":13219,"ĠSArray":13220,"Ġareas":13221,"capabilities":13222,"serialization":13223,"Ġ''}":13224,"MOD":13225,"Ġadjusted":13226,"persist":13227,".'))":13228,"Place":13229,"etag":13230,"ĊĊĠĠĠĠĠĠĠĠĠĠĠĠĠ":13231,"Ġinstr":13232,"ĠSHA":13233,"Ġvendor":13234,"ĠMV":13235,"ĠWarning":13236,"(((":13237,"NDArray":13238,"åĪĹ":13239,"FIELDS":13240,"ä¸Ģä¸ª":13241,"LM":13242,"acon":13243,"das":13244,"swap":13245,"tilt":13246,"Ġants":13247,"(';":13248,"ĠSyntaxError":13249,"Ġsignatures":13250,"120":13251,"Ġfnmatch":13252,"dispatcher":13253,"Ġsearched":13254,"lider":13255,"ĠWBEM":13256,"processors":13257,"Ġoperating":13258,"Checking":13259,"IPv":13260,"scales":13261,"^{-":13262,"hemical":13263,"FROM":13264,"Scope":13265,"Ġ'|":13266,"quake":13267,"ĠStri":13268,"Ġylim":13269,"ĠNumpy":13270,"Ġcomposition":13271,"INDEX":13272,"ĠAnalysis":13273,"Ġexplo":13274,"Ġmedium":13275,"Angle":13276,"'`":13277,"venv":13278,"water":13279,"ĠCallback":13280,"ĠRender":13281,"ĠBE":13282,"Ġextractor":13283,"])),":13284,"diffs":13285,"Objective":13286,"åıĤ":13287,"surf":13288,"ĠFASTA":13289,"RestrictedClassType":13290,"Ñģ":13291,"Ġdup":13292,"coll":13293,"defaultdict":13294,"participant":13295,"supp":13296,"Ġterminated":13297,"ĠBovy":13298,"Maximum":13299,"ĠROOT":13300,"Ġmirror":13301,"å¯¹":13302,"-~":13303,"=<":13304,"Ã³":13305,"Ġmpl":13306,"ĠHist":13307,"curse":13308,"ouch":13309,"intercept":13310,"Tools":13311,"FAIL":13312,"ĠNamespace":13313,"Ġincreasing":13314,"å®ļ":13315,"fluence":13316,"dri":13317,"rpm":13318,"Ġwants":13319,"ĠFound":13320,"ĠPr":13321,"00000":13322,"ĠRange":13323,"ĠLV":13324,"corded":13325,"ĠChar":13326,"regexp":13327,"Ġspectral":13328,"Ġmultiplier":13329,"Unicode":13330,"Ġestab":13331,"warded":13332,"?\"":13333,"AMP":13334,"Available":13335,"jk":13336,"åĢ":13337,"è·":13338,"('^":13339,"backends":13340,"ĠExpected":13341,"ĠHigh":13342,"ĠIndi":13343,"tagged":13344,"generation":13345,"Ġcyl":13346,"Ġpersistent":13347,"cidr":13348,"Ġsvc":13349,"shards":13350,"vendor":13351,"Ġurn":13352,"qubit":13353,"ĠFill":13354,"Ġleaves":13355,"subclass":13356,"letters":13357,"Ġequals":13358,"Ġscalars":13359,"ĠPossible":13360,"ĠHandles":13361,"Visible":13362,")^":13363,"Lat":13364,"Packet":13365,"grouped":13366,"sex":13367,"Ġbill":13368,"Ġbio":13369,"ĠAttributes":13370,"ĠCSS":13371,"ĠWord":13372,"Ġatol":13373,"reement":13374,"Ġblocksize":13375,"replacement":13376,"gaussian":13377,"padded":13378,"yper":13379,"Ġhdf":13380,"ppers":13381,"tostring":13382,"Removes":13383,"ĠSends":13384,"Ġprece":13385,"plural":13386,"conditional":13387,"ĊĠĠĠĠĠĠĠĠĠĠĠĠĠĠĠĠĠĠĠĠĠĠĠĠĠĠĠĠĠĠĠĠĠĠĠĠĠĠĠĠĠĠĠĠĠĠĠĠĠĠĠĠĠĠĠĠĠĠĠĠĠĠ":13388,"rollers":13389,"ĠMeta":13390,"Generic":13391,"Ġalternate":13392,"Ġretrieving":13393,"%%%%":13394,"Ġenvironments":13395,"History":13396,"tleneck":13397,"jpg":13398,"rhs":13399,"ĠRemote":13400,"ĠBasic":13401,"Ġ&&":13402,"Ġaccessible":13403,"Ġduplicated":13404,"Ġgpu":13405,"avigation":13406,"!='":13407,"hib":13408,"slope":13409,"Ġck":13410,"Ġreduction":13411,"Ġpx":13412,"ĠWrites":13413,"Ġlem":13414,"RET":13415,"sider":13416,"={}'.":13417,"recipient":13418,"lunk":13419,"iny":13420,"metri":13421,"Ġgrow":13422,"ĠNu":13423,"ĠMAC":13424,"ONG":13425,"Ġregisters":13426,"Metric":13427,"Ġguaranteed":13428,"Ġadjacency":13429,"}-{":13430,":(":13431,"RST":13432,"Ġcrc":13433,"Ġconcurrent":13434,"Ġlosses":13435,"Ġprinting":13436,"ĠBEL":13437,"Ġaccessed":13438,"Coord":13439,"isson":13440,"ABASE":13441,"Preview":13442,"Ġepochs":13443,"Labels":13444,"ĠSQLAlchemy":13445,"Fn":13446,"rng":13447,"turb":13448,"delim":13449,"Ġorb":13450,"Ret":13451,"datas":13452,"argmin":13453,"disks":13454,"tempdir":13455,"FAILED":13456,"Ġassignments":13457,"}'\".":13458,"Ġ\"-\"":13459,"Ġreasons":13460,"interpolate":13461,"ĠDynamoDB":13462,"NEL":13463,"squared":13464,"stations":13465,"Ġkeyed":13466,"Ġtagged":13467,"...]":13468,"retch":13469,"Ġsplitting":13470,"ĠSpecial":13471,"recipe":13472,"nasa":13473,"čĊĠĠĠĠĠĠĠĠĠ":13474,"Ġtid":13475,"uro":13476,"Ġ26":13477,"Ġcollapse":13478,"Ġpathname":13479,"pename":13480,"posts":13481,"Chunk":13482,"Ġheads":13483,"6666":13484,"BYTES":13485,"sease":13486,"Ġti":13487,"Ġdecay":13488,"Ġrates":13489,"linesep":13490,"ConfigParser":13491,"normalization":13492,"25519":13493,"lng":13494,"lvl":13495,"tbl":13496,"Ġcoeff":13497,"Ġjar":13498,"REGI":13499,"filesystem":13500,"Ġabsent":13501,"Threshold":13502,"TimeoutError":13503,"Atom":13504,"dos":13505,"Ġprune":13506,"ĠAT":13507,"ĠĠĠĠĠĠĠĠĠĠĠĠĠĠĠĠĠĠĠĠĠĠĠĠĠ":13508,"Ġatlas":13509,"Ġflash":13510,"POSI":13511,"Ġvisibility":13512,"Ġrelationships":13513,"Ġconfirmation":13514,"scribed":13515,"ĠINTO":13516,"chastic":13517,"dean":13518,"leave":13519,"leader":13520,"Ġspark":13521,"uber":13522,"ĠFast":13523,"Ġ------------":13524,"sential":13525,"DataArray":13526,"Units":13527,"ĊĠĠĠĠĠĠĠĠĠĠĠĠĠĠĠĠĠĠĠĠĠĠĠĠĠĠĠĠĠĠĠĠĠĠĠĠĠĠĠĠĠĠĠĠĠĠĠĠĠĠĠĠĠĠĠĠĠĠĠĠĠĠĠ":13528,"Ġmotor":13529,"Ġfacet":13530,"passed":13531,"ĠHEAD":13532,"btn":13533,"vg":13534,"Ġnorth":13535,"Ġldap":13536,"ety":13537,"Ġvoid":13538,"scenario":13539,"ĠOP":13540,"Ġhashed":13541,"Ġsound":13542,"{}\"":13543,"Ġvariation":13544,"('/',":13545,"Ġissued":13546,"Ġsyllable":13547,"representation":13548,"don":13549,"dashboard":13550,"Ġie":13551,"Ġsaves":13552,"Ġrp":13553,"ĠSc":13554,"Ġprobe":13555,"Ġkeyboard":13556,"Ġliquid":13557,"rowse":13558,"Contents":13559,"Ġtxn":13560,"Ġkeras":13561,"âĶĢâĶĢâĶĢâĶĢ":13562,"RESULT":13563,">`.":13564,"Tri":13565,"stored":13566,"Ġfut":13567,"ĠEnum":13568,"feats":13569,"agin":13570,"finditer":13571,"closest":13572,"orizon":13573,"FLAG":13574,"vr":13575,"ç±":13576,"verified":13577,"Ġgrace":13578,"Ġadvanced":13579,"Ġmanip":13580,"Ġreceiving":13581,"Ġplacement":13582,"Ġdisks":13583,"perture":13584,"~~~~~~~~":13585,"Fault":13586,"Transport":13587,"npy":13588,"Ġstick":13589,"Ġstmts":13590,"ĠPIL":13591,"STREAM":13592,"Ġdiffer":13593,"Ġbreakpoint":13594,"Ġstructured":13595,"Ġwidths":13596,"Ġfitted":13597,"ĠParseError":13598,"Editor":13599,"software":13600,"NUMBER":13601,"________________":13602,"TRIBU":13603,"uptools":13604,"uclidean":13605,"hl":13606,"zmq":13607,"ĠLD":13608,"ĠInit":13609,"Ġadv":13610,"ĠTransaction":13611,"gradebook":13612,"\"+":13613,"Ł¥":13614,"arith":13615,"memo":13616,"rast":13617,"Ġlm":13618,"calib":13619,"msgs":13620,"trajs":13621,"Ġmaxiter":13622,"{}:":13623,"creator":13624,"Depth":13625,"PROCESS":13626,"Ġslash":13627,"ograms":13628,"Ġsatellite":13629,"Ġmysql":13630,"Ġhs":13631,"ĠACL":13632,"ĠPopen":13633,"ĠRole":13634,"ĠUI":13635,"ĠInstead":13636,"flash":13637,"Ġgenotype":13638,"gpg":13639,"Ġmonths":13640,"weekday":13641,"SPONSE":13642,"amazon":13643,"à®":13644,"å¸":13645,"Ġtmpl":13646,"ros":13647,"spike":13648,"toggle":13649,"ĠIF":13650,"Ġmeters":13651,"Ġheap":13652,"grammar":13653,"Ġagents":13654,"Ġrefers":13655,"bars":13656,"bigquery":13657,"Ġstopping":13658,"Dimension":13659,"EK":13660,"]``":13661,"inherit":13662,"CONF":13663,"QUERY":13664,"replica":13665,"Bool":13666,"ĠElse":13667,"Potential":13668,"zs":13669,"igab":13670,"ĠMore":13671,"Ġpref":13672,"Ġcombo":13673,"Ġviewer":13674,"versible":13675,"documentation":13676,"COMMAND":13677,"Des":13678,"LC":13679,"}$":13680,"Ġcitation":13681,"Ġ'^":13682,"Ġwall":13683,"ramid":13684,"urllib":13685,"ĠVLAN":13686,"Ġweak":13687,"Ġstacklevel":13688,"={}\".":13689,"ĠTimeSeries":13690,"multipart":13691,"Hello":13692,"Ġevt":13693,"llegalState":13694,"åįķ":13695,"Ġrenamed":13696,"Ġrg":13697,"perly":13698,"ĠMat":13699,"ĠLimit":13700,"filled":13701,"ĊĠĠĠĠĊĠĠĠĠĊĠĠĠ":13702,"ĠValidation":13703,"icipants":13704,"Override":13705,"(\"/\")":13706,"Ġmicroseconds":13707,"Ġlexer":13708,"RECASE":13709,"HITE":13710,"ea":13711,"ospy":13712,"ĠRA":13713,":`<":13714,"Constraint":13715,"((-":13716,"Ġ45":13717,"Ġgenerally":13718,"ampRec":13719,"(_(\"":13720,"TERM":13721,"RAW":13722,"ĠRegistry":13723,"gran":13724,"qry":13725,"Ġcart":13726,"Ġcartesian":13727,"Ġptr":13728,"Ġini":13729,"ĠSY":13730,"Ġxarray":13731,"phen":13732,"ĊĉĊ":13733,"classifier":13734,"======":13735,"latin":13736,"ADATA":13737,"111":13738,"Ġ'{}'.":13739,"Ġstock":13740,"contacts":13741,"FFIX":13742,"GA":13743,"Saml":13744,"octet":13745,"invoice":13746,"Ġcance":13747,"Ġ'['":13748,"Ġgray":13749,"LEFT":13750,"strictions":13751,"attery":13752,"Ġinterpolated":13753,"Ġshutit":13754,"Distance":13755,"modifier":13756,"pieces":13757,"7554":13758,"Score":13759,"eLife":13760,"instructions":13761,"Ġrecall":13762,"pathname":13763,"ĠSupported":13764,"Ġdimensional":13765,"ĠTimestamp":13766,"slave":13767,"Ġsoftware":13768,"similarity":13769,"PING":13770,"Ste":13771,"pul":13772,"sx":13773,"reward":13774,"Ġsz":13775,"Ġsca":13776,"Ġ``<":13777,"ipament":13778,"ĠWCS":13779,"ĠBio":13780,"areas":13781,"Ġfinds":13782,"Ġtriangles":13783,"Assessment":13784,"'[":13785,"above":13786,"vecs":13787,"ĠFLAGS":13788,"Ġvote":13789,"colon":13790,"Ġpreview":13791,"logo":13792,"Ġserve":13793,"Ġbackends":13794,"FFER":13795,"ĠOnce":13796,"Ġtarfile":13797,"qc":13798,"votes":13799,"getitem":13800,"ĠLike":13801,"Ġsubcommand":13802,"registers":13803,"Ġforced":13804,"omatically":13805,"Ġrecv":13806,"Ġsnmp":13807,"Ġqualifier":13808,"IGNORECASE":13809,"FUNCTION":13810,"AV":13811,"Supported":13812,"warm":13813,"}(":13814,"Ġtube":13815,"Ġips":13816,"arches":13817,"Ġ'):":13818,"Ġ(\\":13819,"Ġlot":13820,"Ġrval":13821,"undles":13822,"pyc":13823,"grads":13824,"Ġangular":13825,"subjects":13826,"ĠBeautifulSoup":13827,"ĠTherefore":13828,"Cre":13829,"MARY":13830,"gm":13831,"Ġosp":13832,"unwrap":13833,"Ġthink":13834,"Ġyy":13835,"ĠGlobal":13836,"varname":13837,"zonefile":13838,"Ġrelpath":13839,"Serializer":13840,"even":13841,"rw":13842,"}))":13843,"æ³":13844,"Ġdum":13845,"pep":13846,"Ġstim":13847,"Ġlocate":13848,"posterior":13849,"shp":13850,"ĠParser":13851,"Problem":13852,"categorical":13853,"RIGHT":13854,"Ġcalculates":13855,"Ġmsgs":13856,"ctrlpts":13857,"balancer":13858,"ming":13859,"Ġ\"@":13860,"ntime":13861,"validators":13862,"labelsize":13863,"Ġentered":13864,"realm":13865,"Ġexcludes":13866,"tiles":13867,"Ġalleles":13868,"AIL":13869,"bt":13870,"futures":13871,"hints":13872,"Ġorm":13873,"Ġlc":13874,"ĠAvailable":13875,"ONLY":13876,"ATURE":13877,"devops":13878,"TOP":13879,"ĠQuantity":13880,"freqs":13881,"ĠRegion":13882,"Ġdivmod":13883,"ĠAlign":13884,"El":13885,"More":13886,"eigen":13887,"erc":13888,"dere":13889,"Ġbenchmark":13890,"Ġprovenance":13891,"matcher":13892,"includes":13893,"åıĳ":13894,"pdating":13895,"cumulative":13896,"ĠMemory":13897,"CAP":13898,"Pi":13899,"reindex":13900,"itations":13901,"pagin":13902,"forecast":13903,"broad":13904,"2013":13905,"Ġsatisfy":13906,"upyter":13907,"ç±»":13908,"Glyph":13909,"you":13910,"Ġncols":13911,"ĠTy":13912,"ToChar":13913,"Ġcommits":13914,"Algorithm":13915,"CRET":13916,"Writes":13917,"Ġtk":13918,"Ġspread":13919,"__']":13920,"curves":13921,"Ġoperand":13922,"testing":13923,"Ġdescending":13924,"ByName":13925,"Ġeigenvalues":13926,"Ġbracket":13927,"ĠLinear":13928,"ĠGitHub":13929,"PUB":13930,"Skip":13931,"erated":13932,"mmutable":13933,"Ġrobot":13934,"Ġstreaming":13935,"Subnet":13936,"Ġshowing":13937,"Instances":13938,"stores":13939,"PARE":13940,"ĠEntity":13941,"LOBAL":13942,"TCP":13943,"Ġlf":13944,"Ġfm":13945,"Ġmen":13946,"three":13947,"Ġlp":13948,"ĠOF":13949,"Cookie":13950,"dropna":13951,"Ġadjacent":13952,"234":13953,"dj":13954,"vault":13955,"ĠAD":13956,"ĠMult":13957,"php":13958,"Ġpathlib":13959,"ĠBoth":13960,"ternational":13961,"Ġdiscover":13962,"(_('":13963,"Ġnetworkx":13964,"Ġreplacements":13965,"Env":13966,"Ġaccordingly":13967,"Modified":13968,"PYTHON":13969,"ĠInterface":13970,"detector":13971,"Ġcodon":13972,"DY":13973,"Spect":13974,"either":13975,"};":13976,"']})":13977,"setFormatter":13978,"shadow":13979,"untu":13980,"ĠVert":13981,"ĠWARNING":13982,"Ġavailability":13983,"ĊĠĠĠĠĠĠĠĠĠĠĠĠĠĠĠĠĠĠĠĠĠĠĠĠĠĠĠĠĠĠĠĠĠĠĠĠĠĠĠĠĠĠĠĠĠĠĠĠĠĠĠĠĠĠĠĠĠĠĠĠĠĠĠĠ":13984,"documents":13985,"ENDPOINT":13986,"Ġsucceeded":13987,"Origin":13988,"\"%(":13989,"gca":13990,"ission":13991,"ospf":13992,"ĠdP":13993,"isin":13994,"Ġdecl":13995,"addWidget":13996,"ClientError":13997,"Alignment":13998,"Ġfooter":13999,",):":14000,"jwt":14001,"Ġnom":14002,"vip":14003,"Ġproviders":14004,"uby":14005,"acle":14006,"uresystems":14007,"Ġscra":14008,"125":14009,"releases":14010,"Ġstrides":14011,"ĠManager":14012,"Ġoverriding":14013,"uresystemslib":14014,"-{":14015,"]][":14016,"reserved":14017,"Ġsmoothed":14018,"INE":14019,"Ġroots":14020,"distinct":14021,"longest":14022,"NEW":14023,"ĠSoft":14024,"YANGListType":14025,"Topic":14026,"Cl":14027,"lbl":14028,"oids":14029,"wid":14030,"yond":14031,"ctr":14032,"Ġlng":14033,"Repo":14034,"STEM":14035,"ogonal":14036,"envs":14037,"ĠDest":14038,"Pair":14039,"delivery":14040,"VO":14041,"dark":14042,"kk":14043,"rdd":14044,"vnetwork":14045,"ĠCI":14046,"Ġprox":14047,"Ġpropagate":14048,"ĠPSD":14049,"ĠGUI":14050,"linewidth":14051,"npack":14052,"SECON":14053,"manual":14054,"fitness":14055,"Dispatch":14056,"failures":14057,"Activ":14058,"-~-~":14059,"]._":14060,"Ġnrows":14061,"thumb":14062,"Ġexceeded":14063,"Ġdivide":14064,"apper":14065,"ĠDump":14066,"energies":14067,"Ġvalidators":14068,"Ġtokenizer":14069,"statuses":14070,"ĠHTTPError":14071,"Ġacceptance":14072,"Ġdotted":14073,"CFG":14074,"Ġtunnel":14075,"-'":14076,"bol":14077,"guest":14078,"tte":14079,"rerun":14080,"Ġwrapping":14081,"Ġ_(":14082,"ĠCR":14083,"usually":14084,"Ġpore":14085,"contiguous":14086,"issub":14087,"Ġknowledge":14088,"qqq":14089,"ĠMultiIndex":14090,"truncate":14091,"_*":14092,"¡ç":14093,"ãģ":14094,"erry":14095,"Ġrelax":14096,"probe":14097,"__'":14098,"necessary":14099,"Ġexistence":14100,"publisher":14101,"MODEL":14102,"quares":14103,"ĠRSA":14104,"Ġargspec":14105,"Couldn":14106,"Backend":14107,"effective":14108,"/>":14109,"quota":14110,"pio":14111,"Ġaccur":14112,"Ġtraverse":14113,"EventData":14114,"Ġmultipart":14115,"iliary":14116,"Metrics":14117,"ĠAuthorization":14118,"ĠResults":14119,"+(":14120,"IABLE":14121,"dur":14122,"weld":14123,"ining":14124,"anim":14125,"Ġslight":14126,"umi":14127,"velocity":14128,"ĠPRE":14129,"Ġ{}'":14130,"FIER":14131,"Ġoptimized":14132,"assignments":14133,"Already":14134,"embedded":14135,"amilies":14136,"dscp":14137,"ljust":14138,"mor":14139,"sell":14140,"Ġelevation":14141,"Ġbas":14142,"ĠSpark":14143,"ĠĠĠĠĠĠĠĠĠĠĠĠĠĠĠĠĠĠĠĠĠĠĠĠĠĠ":14144,"paque":14145,"subparsers":14146,"seqid":14147,"Users":14148,"years":14149,"EVT":14150,"integration":14151,"DOCTEST":14152,"tics":14153,"vmax":14154,"xls":14155,"andbox":14156,"ĠCase":14157,"pical":14158,"Ġmatter":14159,"mathrm":14160,"Runner":14161,"Entries":14162,"ï¼ļ":14163,"fficiency":14164,"Ġazure":14165,"ĠNormalize":14166,"listeners":14167,"Ġciphertext":14168,"ĠIndicates":14169,"âĸĪ":14170,".]":14171,"imap":14172,"urlencode":14173,"Ġsanit":14174,"Ġsanity":14175,"utors":14176,"rack":14177,"ulates":14178,"Ġland":14179,"Ġhw":14180,"ĠDrop":14181,"urlparse":14182,"Ġboost":14183,"Ġ[]))":14184,"Console":14185,"STO":14186,"ACCESS":14187,"GroupName":14188,"clicked":14189,"ĠMIME":14190,"CV":14191,"JLink":14192,"Sm":14193,"rated":14194,"xFFFF":14195,"ĊĊĠĠĠĠ":14196,"hemer":14197,"arwin":14198,"Ġsx":14199,"coerce":14200,"Ġ\"\\\\":14201,"Ġhl":14202,"ĠFloat":14203,"ĠLanguage":14204,"basedir":14205,"itervalues":14206,"DataType":14207,"Ġannotate":14208,"ĠInputs":14209,"havior":14210,"continuous":14211,"Ġelectro":14212,"/')":14213,"Bro":14214,"FL":14215,"bw":14216,"oct":14217,"ymax":14218,"Ġaudit":14219,"Ġfold":14220,"Ġdashboard":14221,"Expect":14222,"txn":14223,"Period":14224,"replication":14225,"Binds":14226,"JS":14227,"WM":14228,"mble":14229,"your":14230,"zation":14231,"Ã°":14232,"covariance":14233,"ptides":14234,"esh":14235,"Ġthumb":14236,"intensity":14237,"ĠFore":14238,"Ġpreset":14239,"Ġcompose":14240,"ĠAltern":14241,"YYY":14242,"Ġinstantiated":14243,"Ġsilently":14244,"ĠSecurity":14245,"High":14246,"lsp":14247,"Ġsnap":14248,"Ġdecrypted":14249,"Ġparses":14250,"pref":14251,"Ġnewlines":14252,"ĠExport":14253,"weak":14254,"Ġqqqq":14255,"CHANGE":14256,"ĠConfigure":14257,"Ġdiagram":14258,"SUM":14259,"TASK":14260,"eried":14261,"Ġpn":14262,"Ġrating":14263,"shipping":14264,"ĠLib":14265,"Ġprojected":14266,"Ġequality":14267,"artifacts":14268,"Ġresiduals":14269,"GPS":14270,"SING":14271,"want":14272,"¾ç":14273,"Ġjo":14274,"Ġbid":14275,"Ġdivision":14276,"fileName":14277,"ĠVER":14278,"Ġjc":14279,"{}'":14280,"MAG":14281,"publication":14282,"ĠRaw":14283,"tended":14284,"Ġestimates":14285,"('-',":14286,"Ġlisteners":14287,"phanum":14288,"ç¬¦":14289,"rez":14290,"Ġfutures":14291,"Ġcraw":14292,"Ġrebuild":14293,"ushed":14294,"phinx":14295,"ĠLE":14296,"ĠGrid":14297,"ĠWrapper":14298,"Ġblockchain":14299,"Ġsingleton":14300,"directive":14301,"datum":14302,"IGN":14303,"reduced":14304,"Ġforeground":14305,"piece":14306,"routine":14307,"DN":14308,"rins":14309,"Ġcolored":14310,"Ġ==================":14311,"Ġidle":14312,"Ġjac":14313,"ĠContains":14314,"Addr":14315,"EXEC":14316,"ĠFiles":14317,"Ġsegmentation":14318,"tracking":14319,"Ġmotif":14320,"'$":14321,"cand":14322,"}})":14323,"ĠĊĊĠĠĠ":14324,"atypes":14325,"Ġwit":14326,"locks":14327,"ORS":14328,"primitive":14329,"PEG":14330,"hexlify":14331,"xxx":14332,"Ġsymmetry":14333,"ĠMongoDB":14334,".-":14335,"Surface":14336,"Watch":14337,"`_":14338,"bine":14339,"semi":14340,"Ġfld":14341,"Ġru":14342,"icast":14343,"bert":14344,"Ġhasn":14345,"LES":14346,"packets":14347,"speech":14348,"Ġpsutil":14349,"CalledProcessError":14350,"capitalize":14351,"MON":14352,"TARGET":14353,"bash":14354,"fx":14355,"lxc":14356,"she":14357,"èĢ":14358,"Ġcand":14359,"oling":14360,"concern":14361,"ĠHz":14362,"STDOUT":14363,"RESET":14364,"RESPONSE":14365,"filing":14366,"does":14367,"slc":14368,"MessageBox":14369,"ensemble":14370,"Ġenergies":14371,"ĠAxes":14372,"ToCharP":14373,"Rot":14374,"Ġcg":14375,"Ġcertificates":14376,"Ġhmac":14377,"ElementTree":14378,"Ġallowing":14379,"marize":14380,"Such":14381,"Ġmotion":14382,"Verify":14383,"åľ¨":14384,"CODING":14385,"METHOD":14386,"WRITE":14387,"arctan":14388,")()":14389,"Am":14390,"BAD":14391,"CRI":14392,"Scalar":14393,"draft":14394,"\"\",":14395,"adv":14396,"Ġproduction":14397,"ĠFrequency":14398,"ĠExpression":14399,"ably":14400,"Ġ401":14401,"skipped":14402,"Ġhexa":14403,"Ġplatforms":14404,"\"})":14405,"čĊĠĠĠĠĠĠĠĠĠĠĠĠĠĠĠĠĠĠĠĠĠĠĠĠĠĠĠĠĠĠĠ":14406,"Ġifo":14407,"utron":14408,"Ġassembly":14409,"Ġalgo":14410,"ĠNB":14411,"stringToCharP":14412,"lats":14413,"Ġspot":14414,"Ġ...}":14415,"ĠJWT":14416,"]]]":14417,"Ġlocus":14418,"Mac":14419,"jpl":14420,"tight":14421,"ua":14422,"otion":14423,"ĠLat":14424,"campaign":14425,"Ġcompact":14426,"REMO":14427,"icrosoft":14428,"Ġlatex":14429,"ĠSupport":14430,"ĠUpload":14431,"Finished":14432,"Wrap":14433,"uk":14434,"reconnect":14435,"Ġdeserialize":14436,"ugate":14437,"Ġ33":14438,"160":14439,"ĠMakes":14440,"softmax":14441,"ĠComment":14442,"Ġsphinx":14443,"DIRECTORY":14444,"ĠFinally":14445,"vote":14446,"heartbeat":14447,"itors":14448,"Ġproportion":14449,"ĠPEM":14450,"ĠHas":14451,"levelname":14452,"Ġmembership":14453,"credit":14454,"permutation":14455,"gramming":14456,"Kind":14457,"ĠEvery":14458,"ĠGP":14459,"agers":14460,"DBSession":14461,"QUE":14462,"ĠInterval":14463,"Ġeasily":14464,"kargs":14465,"xticks":14466,"Ġwd":14467,"olated":14468,"ĠLast":14469,"uncer":14470,"Ġinteract":14471,"Ġoffer":14472,"Ġpublication":14473,"Ġsqlalchemy":14474,"Methods":14475,"breakpoint":14476,"scheduled":14477,"ZipFile":14478,"Amount":14479,
[...]
